the 6634344
, 5462478
. 4564522
of 3476137
and 3126030
to 2959036
in 2160383
a 1949357
is 1555035
that 1203432
for 1122684
on 884718
@-@ 878850
with 767991
The 735432
be 725620
are 724446
as 655599
I 639688
this 622792
it 568244
we 542434
by 535212
have 524626
not 509425
you 486587
&quot; 474587
which 455874
will 451824
from 428424
( 426630
) 422986
or 414501
at 408410
an 403372
- 389918
&apos;s 388611
has 382201
can 326600
our 312618
European 309224
was 308460
all 307520
: 289328
also 275436
your 238335
its 233799
but 223348
We 222295
would 217147
more 214769
their 213877
In 209032
one 207275
been 205455
This 194513
It 193120
&apos; 190733
should 187800
Mr 187465
Commission 172204
must 168926
they 164348
there 161118
very 160509
/ 160459
other 160049
new 159646
do 159371
time 157040
only 156024
like 154871
President 153939
about 151108
us 142293
? 139514
so 138920
up 138144
these 137283
who 135386
if 128719
no 127287
Union 126890
any 123862
out 121947
Europe 121031
people 119644
Parliament 119394
into 119246
; 118705
such 114559
well 114530
were 114418
what 112092
States 111545
countries 110475
than 109340
report 108594
Member 108027
use 106921
his 106223
when 105525
need 105257
my 104032
most 103666
! 103565
some 103362
first 103070
Council 101805
EU 100258
now 100024
them 99735
work 99588
make 99334
many 98938
important 98124
between 97640
A 97558
because 94655
take 92985
way 90387
made 87751
s 87620
... 87451
two 86841
years 86271
information 85963
hotel 85567
world 84789
support 84678
just 84045
If 83793
over 83572
those 83447
had 83042
he 82949
where 80512
policy 80305
being 79604
able 79300
re@@ 79088
am 79026
un@@ 76948
may 76387
system 75998
even 75876
year 74910
right 73555
de 72832
&#91; 72432
&#93; 71919
part 71071
order 70949
area 70063
good 69500
market 68761
through 67424
see 67418
% 67315
after 67304
here 67139
political 67076
place 66868
economic 66777
You 66581
possible 66510
same 66492
own 65986
i 65453
As 65188
in@@ 64670
could 64390
development 64287
how 63824
rights 63517
then 63473
There 63349
within 63084
want 62696
country 62576
against 62394
For 62388
2 62367
used 62141
o 61831
both 61825
much 61531
1 60927
therefore 60653
under 60182
ing 60019
find 59915
does 59403
high 59064
public 59034
point 58093
ed 57946
without 57931
international 56612
number 56582
free 56368
long 56001
services 55951
me 55582
still 55483
social 55480
fact 55478
say 54650
great 54429
different 54182
available 54151
know 53711
y 53306
view 53064
already 52765
future 52661
last 52582
believe 52281
Hotel 52115
e 52073
S@@ 52055
before 51859
3 51856
set 51695
end 51677
course 51572
today 51534
That 51114
es 50914
too 50854
But 50706
case 50426
products 50380
process 49782
level 49532
cannot 49446
think 49350
data 49342
day 49293
quality 49260
room 49194
service 49158
c@@ 48478
human 48394
get 48330
C@@ 47989
financial 47767
Commissioner 47193
offers 46874
during 46611
P@@ 46444
city 46084
national 46052
example 45861
said 45548
means 45469
debate 45459
including 45420
issue 45378
best 45308
s@@ 45129
proposal 45117
question 44894
since 44755
small 44480
every 44413
situation 43928
p@@ 43827
However 43592
help 43515
based 43492
each 43105
business 43059
Our 42929
rooms 42822
clear 42818
particular 42593
er 42439
access 42237
4 42156
Committee 42105
T@@ 42042
three 41790
measures 41713
common 41609
al 41605
offer 41562
energy 41377
areas 41317
give 41263
next 41040
citizens 40752
few 40729
large 40712
go 40625
B@@ 40608
d@@ 40569
provide 40459
taken 40407
agreement 40349
ation 40302
A@@ 40127
put 39938
far 39873
problem 39739
5 39526
ensure 39190
All 38955
again 38856
On 38846
back 38795
further 38731
her 38585
ers 38576
come 38472
m 38449
problems 38309
D@@ 38224
security 38222
change 38206
necessary 37956
company 37927
given 37831
M@@ 37684
while 37661
o@@ 37553
why 37475
shall 37366
position 37341
however 37285
b@@ 37072
cooperation 36979
life 36862
10 36811
law 36690
G@@ 36635
vote 36352
en@@ 36298
real 36275
group 36217
With 36170
And 36135
To 36129
&amp; 36120
needs 36104
United 36075
less 36016
always 35724
action 35712
form 35700
&apos;t 35629
They 35626
ate 35547
using 35475
hope 35474
H@@ 35383
At 35325
de@@ 35182
located 35133
better 35075
full 35054
down 35009
power 34989
state 34833
stay 34729
E@@ 34665
L@@ 34604
N@@ 34576
protection 34378
y@@ 34356
Group 34263
working 34262
F@@ 34252
making 34136
What 34120
K@@ 34075
around 34036
current 34013
trade 33977
production 33911
main 33876
v@@ 33732
become 33718
open 33545
whether 33510
ated 33494
e@@ 33492
terms 33415
present 33400
did 33366
particularly 33288
di@@ 33174
special 33101
together 33067
Community 33004
Mrs 32929
legal 32863
another 32805
t 32737
t@@ 32691
result 32555
children 32547
k@@ 32435
These 32427
When 32427
House 32317
per 32289
V@@ 32185
conditions 32055
second 32044
d 32001
&apos;@@ 31975
issues 31928
&#124; 31913
systems 31659
g@@ 31627
u@@ 31506
m@@ 31412
certain 31385
companies 31383
role 31351
old 31319
women 31245
government 31223
O@@ 31088
US 31048
health 30975
dis@@ 30828
sector 30826
control 30675
industry 30653
site 30604
centre 30603
various 30538
f@@ 30492
especially 30436
basis 30418
an@@ 30405
experience 30381
called 30345
whole 30344
i@@ 30282
line 30201
R@@ 29990
matter 29917
done 29811
water 29787
account 29740
specific 29591
respect 29542
a@@ 29464
third 29414
local 29368
en 29365
budget 29279
create 29179
region 29153
n@@ 29132
ts 29083
research 29057
global 29050
al@@ 29017
W@@ 28983
really 28949
non 28919
term 28876
German 28812
million 28714
decision 28683
major 28480
ted 28431
Germany 28362
look 28279
crisis 28246
days 28237
itself 28220
con@@ 28215
close 28184
fully 28120
page 28070
going 28025
continue 28009
something 27955
project 27931
several 27866
single 27768
rapporteur 27763
resolution 27729
li@@ 27719
ating 27714
name 27688
often 27564
hand 27530
management 27449
growth 27429
least 27401
programme 27371
20 27079
ti@@ 27066
gentlemen 27060
following 27034
modern 26993
rules 26985
away 26943
general 26927
regard 26902
wish 26839
j@@ 26712
directive 26632
range 26587
subject 26481
He 26433
ask 26413
once 26411
30 26400
le 26379
start 26356
l 26351
family 26327
environment 26282
institutions 26247
ting 26236
off 26209
list 26158
si@@ 26146
towards 26032
.@@ 26023
6 25990
money 25928
transport 25870
I@@ 25814
ra@@ 25796
price 25777
welcome 25759
things 25749
ar@@ 25701
k 25699
ch@@ 25672
found 25585
little 25577
increase 25554
p 25552
until 25519
him 25489
u 25486
food 25456
known 25445
software 25445
product 25439
7 25381
Madam 25337
private 25272
Treaty 25206
individual 25203
z@@ 25154
ly 25089
customers 25072
rather 25056
2009 25048
opportunity 25023
location 25022
side 25015
interest 24951
excellent 24938
field 24916
No 24854
China 24835
thank 24762
forward 24743
economy 24704
aid 24691
short 24678
resources 24611
personal 24600
approach 24595
activities 24585
air 24510
call 24430
home 24164
8 24118
c 24093
provided 24050
period 24046
behalf 24023
yet 24021
value 24007
building 24003
la 23998
co@@ 23970
quite 23916
technology 23882
might 23879
Members 23865
agree 23829
ro@@ 23829
among 23808
taking 23784
staff 23778
having 23774
h@@ 23765
l@@ 23726
ri@@ 23694
members 23688
include 23605
ates 23564
solution 23542
on@@ 23480
ations 23475
State 23447
ladies 23394
proposals 23360
framework 23319
er@@ 23317
amendments 23262
costs 23261
left 23233
town 23212
So 23190
allow 23165
safety 23152
der 23080
15 23028
ar 23016
points 23013
J@@ 22942
others 22936
age 22925
key 22896
due 22874
above 22863
adopted 22852
After 22851
progress 22829
play 22817
le@@ 22795
reason 22769
light 22737
x 22732
times 22731
let 22667
policies 22614
design 22553
makes 22474
effective 22452
opinion 22375
content 22246
legislation 22235
difficult 22185
projects 22097
One 22052
favour 22036
responsibility 21992
results 21964
enjoy 21957
application 21941
or@@ 21901
groups 21836
easy 21786
attention 21782
se 21770
simply 21720
concerned 21719
provides 21716
at@@ 21712
el 21696
show 21675
version 21557
website 21543
addition 21512
minutes 21506
society 21473
greater 21374
importance 21370
text 21363
strategy 21267
questions 21251
contact 21249
ent 21154
man 21152
she 21120
12 21112
es@@ 21064
World 21063
as@@ 21056
b 21000
environmental 20982
words 20972
th@@ 20805
em@@ 20802
principle 20771
C 20762
standards 20708
complete 20691
recent 20651
n 20598
3@@ 20574
training 20514
cultural 20514
sea 20500
beautiful 20499
along 20491
natural 20487
w@@ 20480
wide 20457
el@@ 20399
century 20388
ings 20305
als 20299
employment 20266
authorities 20248
required 20215
clearly 20205
kind 20182
risk 20177
deal 20127
st@@ 20083
meeting 20063
Russia 20062
step 20041
2010 20032
Internet 20003
2008 19981
achieve 19939
address 19857
rate 19851
technical 19848
longer 19804
user 19786
serious 19768
r@@ 19733
house 19721
past 19689
heart 19664
four 19653
essential 19648
pages 19610
sure 19582
months 19572
h 19477
interests 19469
proposed 19453
developed 19434
needed 19418
responsible 19413
bring 19394
directly 19388
nature 19381
solutions 19380
history 19371
des 19336
cost 19330
art 19322
currently 19309
low 19304
led 19285
internal 19267
land 19230
related 19227
enough 19219
feel 19211
regions 19181
am@@ 19120
ago 19118
parties 19103
via 19096
themselves 19095
democracy 19047
date 19026
requirements 19022
im@@ 19011
D 19011
4@@ 18942
events 18918
50 18910
young 18886
peace 18886
efforts 18857
involved 18832
regulation 18829
markets 18757
competition 18743
person 18698
central 18685
freedom 18684
implementation 18679
New 18639
visit 18633
never 18629
per@@ 18627
voted 18626
et 18567
online 18561
guests 18551
Please 18536
ad@@ 18533
changes 18511
Re@@ 18497
cases 18495
thing 18488
force 18467
democratic 18458
upon 18445
9 18397
From 18390
red 18356
top 18339
war 18326
U@@ 18293
pre@@ 18292
car 18283
positive 18275
* 18264
language 18262
near 18239
views 18204
keep 18191
network 18158
extremely 18141
foreign 18119
please 18099
event 18078
EUR 18076
negotiations 18066
developing 18066
though 18055
lot 18044
education 18034
facilities 18020
strong 18005
Z@@ 17956
ac@@ 17949
comes 17941
states 17936
prices 17928
International 17903
sh@@ 17867
either 17866
regional 17796
run 17768
created 17667
climate 17653
ous 17647
ine 17637
held 17621
pay 17617
fundamental 17606
true 17605
live 17590
po@@ 17556
care 17548
funds 17543
thus 17526
2007 17520
share 17515
almost 17503
according 17467
18@@ 17466
improve 17455
total 17433
effect 17378
S 17374
se@@ 17368
ever 17359
success 17342
request 17325
Presidency 17299
tions 17298
seen 17297
French 17222
capital 17214
workers 17211
meet 17184
consider 17182
station 17175
music 17163
additional 17146
team 17135
actually 17112
type 17100
looking 17063
France 17059
living 17040
os 17030
lead 17014
everything 17013
soon 16999
investment 16997
later 16984
unique 16984
situated 16982
road 16960
standard 16952
idea 16948
km 16943
= 16942
Al@@ 16896
five 16881
men 16871
designed 16866
tax 16848
famous 16844
di 16838
understand 16826
_ 16809
works 16796
re 16772
accept 16772
est 16770
appropriate 16735
file 16735
space 16732
included 16719
receive 16716
it@@ 16690
ab@@ 16664
breakfast 16663
night 16642
early 16639
bar 16623
direct 16615
majority 16587
2000 16574
takes 16547
over@@ 16544
procedure 16515
que 16503
Y@@ 16489
25 16482
turn 16417
knowledge 16402
100 16388
program 16364
ve 16341
beach 16327
ant 16307
24 16300
restaurant 16297
etc 16290
sp@@ 16271
try 16270
parts 16263
reach 16247
doing 16237
outside 16233
ans 16232
users 16213
American 16210
11 16199
communication 16111
took 16102
guarantee 16094
significant 16085
throughout 16063
g 16063
ic 16046
certainly 16033
Turkey 16020
reform 16011
week 16010
In@@ 16000
ist 15975
plan 15966
across 15964
context 15935
features 15926
relations 15920
T 15883
existing 15882
customer 15882
inter@@ 15871
military 15855
party 15831
comfortable 15819
ability 15793
mentioned 15792
aware 15779
traditional 15754
lo@@ 15743
final 15740
connection 15740
By 15737
hours 15735
X@@ 15725
add 15700
member 15696
concerns 15692
B 15686
leading 15641
und 15636
friendly 15606
impact 15600
x@@ 15599
co 15586
ally 15584
big 15572
hard 15569
built 15569
vi@@ 15560
population 15544
performance 15536
writing 15531
America 15518
TV 15503
body 15493
5@@ 15482
is@@ 15480
amount 15460
ideal 15438
programmes 15419
be@@ 15417
although 15403
+ 15386
agreements 15382
book 15371
check 15358
ma@@ 15339
les 15328
established 15324
community 15301
reasons 15290
decisions 15288
concerning 15277
committee 15265
ways 15253
apply 15230
bi@@ 15230
act 15224
media 15215
rates 15215
ex@@ 15184
Con@@ 15167
remain 15140
Government 15120
O 15114
How 15111
ap@@ 15103
nothing 15081
game 15070
completely 15037
2@@ 15033
culture 14944
sense 14937
demand 14936
professional 14935
moment 14920
op@@ 14908
pool 14901
jobs 14887
res 14886
practice 14880
bo@@ 14870
basic 14851
model 14843
2006 14810
card 14805
table 14791
ds 14789
Since 14781
initiative 14779
original 14779
includes 14771
Office 14768
values 14760
stage 14735
mo@@ 14732
perfect 14732
allows 14721
objectives 14694
qu@@ 14653
develop 14596
face 14589
partners 14589
ty 14588
te 14530
equipped 14514
ci@@ 14513
web 14497
um 14488
half 14486
South 14477
received 14472
regarding 14469
{ 14441
benefit 14438
move 14414
fight 14394
My 14392
governments 14375
active 14370
choice 14369
board 14367
send 14355
Lisbon 14337
agricultural 14317
goods 14315
integration 14314
entire 14303
holiday 14283
euro 14265
applications 14263
package 14241
6@@ 14236
Court 14234
concern 14228
objective 14220
treatment 14211
equipment 14207
read 14203
function 14181
aim 14178
quickly 14159
focus 14144
ce 14140
material 14138
walk 14127
stop 14126
seems 14123
Let 14082
English 14065
reports 14064
style 14055
7@@ 14043
return 14015
successful 14010
ver@@ 13973
potential 13955
indeed 13951
below 13950
self 13928
simple 13926
r 13926
image 13924
series 13919
} 13917
$ 13909
z 13906
achieved 13887
bed 13884
recently 13879
ec@@ 13872
Affairs 13864
Here 13862
tion 13818
prevent 13780
pro@@ 13770
files 13744
May 13730
mean 13721
higher 13704
levels 13689
mind 13672
mail 13664
Finally 13659
tic 13651
beginning 13642
test 13632
job 13620
An 13615
contains 13612
East 13609
highly 13598
ï¿½ 13573
June 13570
increased 13551
dialogue 13539
whose 13530
lack 13523
00 13515
center 13515
follow 13501
ding 13489
nuclear 13487
tra@@ 13470
border 13427
agreed 13425
to@@ 13425
everyone 13414
guest 13403
presented 13352
huge 13348
consumers 13341
internet 13336
computer 13318
ary 13315
answer 13297
om@@ 13273
40 13269
carried 13266
ors 13240
principles 13235
sed 13197
perhaps 13190
enable 13185
ance 13182
rest 13171
added 13166
places 13163
office 13160
commitment 13147
keyword 13125
8@@ 13109
amendment 13094
ves 13077
effects 13073
th 13056
front 13055
possibility 13050
car@@ 13042
star 13033
Some 13032
oil 13029
asked 13024
exchange 13021
E 12995
size 12974
shows 12973
matters 12954
ha@@ 12937
forms 12932
choose 12930
ses 12919
note 12918
reviews 12916
ke 12902
Article 12895
complex 12894
da 12893
setting 12888
direction 12883
double 12866
shown 12848
18 12846
coming 12843
Therefore 12839
ten 12838
considered 12836
actions 12836
capacity 12834
opportunities 12826
promote 12815
don 12801
2005 12792
sites 12789
pressure 12772
increasing 12766
te@@ 12759
response 12740
ter@@ 12735
balance 12726
Berlin 12722
creation 12721
aspects 12720
Spain 12720
reduce 12719
joint 12692
thanks 12683
behind 12683
9@@ 12681
sustainable 12658
billion 12654
came 12634
travel 12616
latest 12614
Now 12606
previous 12587
Mar@@ 12575
press 12566
reached 12565
remains 12551
former 12522
providing 12521
materials 12516
Ro@@ 12500
et@@ 12476
external 12473
bus 12472
prepared 12466
Africa 12466
popular 12456
Italy 12455
floor 12438
Ã©@@ 12437
speak 12432
closed 12430
industrial 12430
An@@ 12430
Â® 12423
supply 12415
ch 12394
14 12352
civil 12334
easily 12290
ol@@ 12276
limited 12269
ons 12254
sound 12243
Of 12238
fair 12238
Central 12234
commercial 12234
16 12229
funding 12228
protect 12224
tive 12184
submitted 12161
cause 12158
decided 12148
priority 12144
par@@ 12129
tri@@ 12122
Ar@@ 12115
search 12110
ber@@ 12109
su@@ 12096
hotels 12095
efficient 12087
enlargement 12087
September 12086
summer 12082
Bank 12067
December 12065
gives 12052
2004 12033
supported 12029
independent 12003
movement 11968
consumer 11967
leave 11958
ins 11940
details 11932
P 11930
charge 11926
rule 11923
accommodation 11923
atmosphere 11917
ag@@ 11915
property 11911
similar 11907
ta@@ 11895
sing 11891
assistance 11864
creating 11859
R 11847
operation 11841
la@@ 11823
largest 11818
island 11804
Co@@ 11791
.com 11769
safe 11762
First 11749
purpose 11739
video 11737
brought 11702
regulations 11701
activity 11685
ones 11681
produced 11671
stability 11669
ou@@ 11668
structure 11656
Convention 11655
13 11650
British 11636
class 11629
relevant 11611
ot@@ 11591
ties 11573
ge@@ 11569
2003 11568
code 11549
ground 11546
six 11536
ze 11529
construction 11521
wi@@ 11509
ne@@ 11503
January 11502
lines 11496
credit 11487
steps 11483
do@@ 11477
became 11466
ter 11457
ent@@ 11453
ling 11447
categories 11442
instead 11441
relation 11428
nice 11423
fishing 11421
written 11419
sub@@ 11416
pleased 11411
discussion 11406
March 11400
G 11387
source 11381
message 11375
speed 11373
Republic 11371
no@@ 11370
conference 11365
M 11341
ment 11339
Mediterranean 11319
0@@ 11318
regards 11309
com@@ 11283
Today 11258
October 11256
variety 11255
started 11251
gas 11221
giving 11215
allowed 11187
produce 11187
link 11187
status 11180
benefits 11177
Minister 11172
item 11165
â¬ 11162
paid 11158
del 11149
w 11139
violence 11138
damage 11112
study 11111
die 11111
procedures 11094
document 11089
Italian 11089
ity 11087
section 11084
effort 11076
Service 11074
ul@@ 11073
distribution 11064
gra@@ 11062
interesting 11052
compromise 11044
stand 11036
cross 11025
ator 11022
ur@@ 11003
bu@@ 11002
contribution 10997
statement 10991
ded 10990
concept 10986
provisions 10979
K 10963
word 10958
ise 10930
clean 10927
2001 10910
payment 10904
instruments 10899
tell 10886
ms 10884
growing 10865
school 10847
require 10841
option 10839
bit 10833
gu@@ 10824
click 10820
National 10817
partner 10814
forces 10806
L 10804
X 10791
ourselves 10774
During 10774
North 10772
&apos;ll 10770
historical 10766
criteria 10764
Spanish 10763
medium 10762
July 10759
ina 10758
finally 10743
rich 10740
task 10727
so@@ 10723
labour 10722
Many 10698
nor 10692
enter 10691
challenges 10689
documents 10683
ed@@ 10652
equal 10645
f 10640
son 10638
integrated 10637
agenda 10626
draft 10623
restaurants 10622
General 10587
express 10586
distance 10583
post 10577
tool 10555
poverty 10554
apartment 10546
transparency 10538
reality 10535
UN 10520
-@@ 10513
conflict 10513
base 10511
sc@@ 10508
consequences 10506
official 10504
IT 10502
wine 10499
un 10498
da@@ 10495
highest 10494
types 10491
reading 10475
gi@@ 10473
elections 10471
Rights 10466
immediately 10459
elements 10453
000 10450
La 10448
avoid 10446
Party 10445
death 10439
airport 10434
drive 10431
gh@@ 10407
us@@ 10407
Although 10404
employees 10390
goes 10387
ni@@ 10386
November 10367
applied 10349
beyond 10349
legislative 10337
Furthermore 10324
happy 10322
sub 10320
village 10318
ism 10310
solidarity 10307
analysis 10298
tools 10295
lives 10294
late 10290
under@@ 10286
DE 10280
ders 10279
numerous 10273
processes 10271
pi@@ 10252
hi@@ 10202
saying 10189
requires 10188
pa@@ 10170
2002 10166
ess 10163
efficiency 10160
Development 10147
il@@ 10138
ces 10137
links 10131
daily 10129
En@@ 10116
man@@ 10107
persons 10097
download 10091
mon@@ 10088
friends 10084
talk 10078
establish 10073
colleagues 10070
Windows 10067
anti 10065
60 10055
terrorism 10050
ge 10045
film 10039
17@@ 10035
review 10033
rec@@ 10031
digital 10026
ra 10024
park 10007
draw 10001
ut@@ 9990
carry 9984
fi@@ 9973
ideas 9971
0 9968
ry 9966
leaders 9965
pe@@ 9958
historic 9956
server 9954
implemented 9948
offering 9938
ak@@ 9937
practical 9933
build 9931
starting 9928
Your 9918
apartments 9914
sts 9912
st 9896
published 9894
crucial 9885
offered 9867
mobile 9864
minimum 9847
Israel 9845
While 9842
April 9841
reduction 9835
Western 9827
poor 9810
got 9810
fine 9800
Directive 9799
round 9798
for@@ 9798
organisations 9797
ing@@ 9792
Bo@@ 9787
Even 9781
ck@@ 9781
tomorrow 9774
sent 9772
expect 9771
caused 9768
useful 9766
weeks 9763
congratulate 9760
17 9755
ad 9745
monitoring 9744
lower 9742
operating 9741
F 9734
cut 9727
banks 9717
reference 9710
relating 9706
quiet 9695
II 9691
up@@ 9686
ship 9672
secure 9672
train 9668
comprehensive 9664
sometimes 9657
head 9657
ready 9651
du@@ 9651
ments 9637
sports 9629
month 9626
ality 9624
voting 9615
options 9615
hold 9614
Chinese 9613
Amendment 9612
challenge 9602
thought 9597
instrument 9595
machine 9581
maximum 9567
transfer 9556
technologies 9554
sales 9549
annual 9548
child 9547
v 9535
Di@@ 9529
ence 9528
begin 9525
accordance 9519
cities 9513
scale 9512
waste 9510
probably 9502
Car@@ 9499
ful 9498
extent 9496
clients 9495
news 9492
ler 9492
extra 9489
N 9485
lies 9478
sectors 9473
powers 9470
mountain 9469
ski 9461
worldwide 9459
V 9459
learn 9441
alone 9420
farmers 9410
anything 9401
accession 9396
Th@@ 9393
21 9386
ten@@ 9379
Russian 9379
scientific 9375
despite 9363
Moreover 9359
ca 9345
res@@ 9344
interested 9343
mention 9340
players 9340
uses 9332
mis@@ 9329
cu@@ 9328
ators 9323
businesses 9319
fall 9316
sk@@ 9304
ren@@ 9303
strategic 9300
methods 9294
method 9278
worked 9264
ep@@ 9246
Austria 9245
Paris 9245
lost 9236
influence 9235
out@@ 9217
ho@@ 9216
rise 9205
advantage 9201
parking 9199
chance 9195
languages 9182
Do 9176
release 9173
ru@@ 9172
ets 9167
innovative 9166
ati@@ 9160
innovation 9154
processing 9151
80 9148
raised 9147
ic@@ 9136
den 9109
Ch@@ 9102
accepted 9101
implement 9101
1999 9099
morning 9096
borders 9092
fields 9080
Fund 9073
green 9064
ka 9061
shopping 9049
trying 9034
doubt 9031
wanted 9029
ia 9025
met 9020
player 9018
pass 9004
Ireland 8997
tor 8997
demands 8993
reforms 8991
ving 8976
selection 8966
Park 8955
images 8954
currency 8945
contract 8945
affected 8940
Thank 8938
fish 8937
lu@@ 8932
Mo@@ 8928
games 8912
namely 8903
critical 8896
Indeed 8895
intended 8895
est@@ 8887
join 8887
absolutely 8883
bathroom 8869
calls 8867
fast 8865
visitors 8864
relationship 8862
adopt 8861
target 8861
ative 8859
ir@@ 8859
bank 8856
swimming 8854
men@@ 8850
overall 8846
Secondly 8840
il 8837
scope 8836
increasingly 8836
22 8823
phone 8822
19 8818
opening 8818
garden 8814
alternative 8804
street 8800
ali@@ 8795
initiatives 8794
changed 8790
representatives 8788
200 8788
Ad@@ 8784
Conference 8767
heard 8762
bar@@ 8758
Is 8747
structural 8742
Ã 8738
email 8737
Ma@@ 8730
placed 8723
committed 8721
City 8714
expressed 8709
cover 8707
Pro@@ 8705
comfort 8701
usually 8699
menu 8692
maintain 8690
West 8688
San 8688
ure 8687
zed 8682
administration 8665
UK 8661
www.@@ 8657
minute 8655
plans 8655
ps 8655
Only 8647
confidence 8646
box 8642
debt 8640
running 8636
ents 8635
500 8632
illegal 8622
Japan 8618
regime 8614
infrastructure 8613
mainly 8610
1@@ 8603
Cor@@ 8602
Ã© 8585
vital 8581
yourself 8578
suitable 8557
proper 8554
unemployment 8554
approved 8551
me@@ 8549
University 8531
goal 8528
Its 8516
likely 8510
cohesion 8499
hour 8498
Iraq 8493
says 8490
talking 8489
den@@ 8488
traffic 8483
Ã¡@@ 8472
planning 8471
ale 8470
king 8468
More 8465
justice 8460
London 8456
stress 8454
improved 8449
sa@@ 8449
Y 8444
families 8439
India 8426
whom 8418
competitive 8413
reduced 8407
People 8401
circumstances 8397
ph@@ 8390
&apos;re 8382
cor@@ 8380
love 8378
Nations 8374
sion 8373
inc@@ 8364
conclusion 8359
began 8357
pl@@ 8349
walking 8346
decide 8336
priorities 8326
powerful 8325
correct 8320
sign 8320
sen@@ 8320
Centre 8310
serve 8302
evening 8300
delivery 8291
emissions 8290
born 8288
Room 8287
H 8284
au@@ 8283
ne 8279
income 8269
ensuring 8265
comments 8264
crime 8259
laws 8251
protected 8249
contribute 8248
Greece 8240
feature 8239
end@@ 8237
effectively 8233
GmbH 8230
ages 8227
ma 8224
risks 8221
terrace 8210
automatically 8207
defined 8204
covered 8202
tourist 8195
ies 8191
Public 8187
collection 8187
participation 8183
Lo@@ 8182
played 8179
founded 8179
encourage 8178
sive 8175
introduced 8169
white 8168
victims 8163
27 8154
students 8149
der@@ 8147
Security 8142
sources 8126
exist 8125
mar@@ 8117
comm@@ 8116
supports 8115
separate 8101
served 8080
else 8075
wing 8072
Gu@@ 8072
larger 8072
specifically 8070
ta 8059
tabled 8056
St@@ 8054
loss 8051
Web 8046
fellow 8045
electronic 8043
plant 8041
map 8034
stated 8030
port 8028
agriculture 8024
extensive 8024
ana 8015
aimed 8011
functions 7992
ical 7991
manner 7988
session 7978
managed 7978
appear 7973
speaking 7970
becoming 7970
ev@@ 7969
ES 7968
can@@ 7967
ard 7963
fo@@ 7959
go@@ 7957
motion 7946
ys 7946
Asia 7937
south 7936
purposes 7934
Ex@@ 7932
record 7931
detailed 7931
precisely 7925
referred 7925
ging 7924
1.@@ 7921
linked 7912
Iran 7910
wrong 7904
sur@@ 7903
discuss 7900
installation 7897
generation 7889
Ri@@ 7889
Each 7878
animals 7874
rural 7872
partnership 7867
bad 7865
ie 7860
AG 7852
helpful 7850
00@@ 7847
assessment 7847
opened 7843
ters 7840
represents 7832
Bar@@ 7831
listed 7831
programs 7824
getting 7817
developments 7812
entry 7811
23 7808
wants 7808
worth 7804
exactly 7803
measure 7793
Middle 7791
won 7790
signed 7781
discussed 7778
otherwise 7778
90 7777
police 7776
budgetary 7772
regular 7769
sitting 7767
70 7766
ously 7761
institutional 7756
Agreement 7748
sions 7745
Also 7745
col@@ 7736
,000 7736
thousands 7729
enterprises 7721
discussions 7718
limit 7714
ari@@ 7713
Then 7709
February 7701
broad 7698
war@@ 7693
Why 7691
sufficient 7685
19@@ 7685
operations 7684
wa@@ 7683
tu@@ 7681
introduction 7675
ob@@ 7675
earlier 7667
medical 7659
screen 7658
sti@@ 7655
expected 7653
sized 7652
track 7649
followed 7645
represent 7638
immigration 7634
selected 7629
strengthen 7616
&gt; 7612
PC 7609
photo 7603
closely 7600
har@@ 7593
administrative 7591
paper 7585
guidelines 7571
ks 7570
houses 7568
camera 7565
supporting 7562
networks 7558
16@@ 7557
ese 7557
Just 7555
facing 7552
improving 7548
Not 7547
spend 7547
considerable 7541
connected 7530
buildings 7528
discrimination 7528
financing 7527
went 7515
kan 7508
Po@@ 7508
happen 7501
degree 7490
War 7476
metres 7471
ck 7470
pen@@ 7460
ably 7459
playing 7458
path 7455
mi@@ 7455
des@@ 7454
client 7453
buy 7452
he@@ 7442
warm 7437
understanding 7435
exclusive 7433
ches 7426
August 7422
inside 7420
ya 7415
Le@@ 7414
ology 7408
speech 7405
thinking 7400
era 7395
She 7394
Policy 7393
tour 7393
wonderful 7392
net 7386
Be@@ 7384
God 7377
organisation 7374
De@@ 7374
ying 7372
save 7367
remember 7364
tourism 7360
His 7358
fresh 7355
average 7346
marketing 7340
Switzerland 7337
provision 7336
positions 7332
Economic 7330
politics 7329
ness 7327
seem 7325
duty 7319
purchase 7315
Q@@ 7315
experts 7312
presence 7307
bodies 7302
domestic 7298
competitiveness 7282
Sea 7279
authority 7278
spirit 7274
season 7270
um@@ 7269
plants 7264
monetary 7263
entirely 7262
components 7261
winter 7254
pre 7249
Poland 7247
presidency 7245
kitchen 7237
10@@ 7229
Pre@@ 7221
coordination 7219
Li@@ 7216
generally 7211
sport 7208
properly 7207
telephone 7207
eg@@ 7204
fisheries 7203
suggest 7201
cal 7198
summit 7198
av@@ 7184
typical 7182
Social 7179
va 7177
refer 7173
Barcelona 7173
animal 7170
hear 7167
trust 7165
Czech 7165
difference 7164
economies 7157
Par@@ 7150
prior 7149
ini 7149
flexible 7147
gave 7145
parliamentary 7131
dealing 7129
Because 7126
advanced 7124
vo@@ 7121
Lu@@ 7118
U 7111
beds 7111
flexibility 7110
difficulties 7106
relate 7103
Most 7103
character 7102
Unfortunately 7096
establishment 7093
ER 7092
select 7084
items 7082
appears 7080
Brussels 7078
Vi@@ 7077
Free 7075
modified 7074
actual 7073
fun 7063
mission 7062
Mon@@ 7049
vehicles 7043
informed 7042
normal 7039
consideration 7038
becomes 7036
comp@@ 7030
Un@@ 7029
.. 7020
cs 7014
threat 7011
fixed 7011
cards 7001
ba@@ 6992
CD 6987
machines 6982
USA 6981
hands 6976
15@@ 6975
According 6972
failure 6972
ang 6970
0.@@ 6962
numbers 6960
cur@@ 6957
ish 6952
combat 6947
meetings 6947
Com@@ 6946
applies 6945
zing 6945
reasonable 6942
Kingdom 6942
ver 6942
attempt 6941
origin 6938
ah 6926
eb@@ 6920
experienced 6920
ble 6913
Rooms 6913
W 6910
gen@@ 6900
High 6899
practices 6891
pleasant 6889
continued 6889
promoting 6886
shops 6881
himself 6877
Human 6871
structures 6870
lin@@ 6866
AN@@ 6862
aims 6852
display 6852
Once 6848
Ukraine 6847
ast@@ 6830
picture 6830
ants 6820
fire 6818
peaceful 6811
easier 6810
estate 6809
20@@ 6807
fund 6794
dy 6778
associated 6774
reducing 6773
aspect 6773
tradition 6773
fied 6752
district 6752
seriously 6750
stable 6750
300 6748
opposition 6747
spacious 6744
forget 6740
finance 6740
told 6739
leader 6735
stock 6734
differences 6731
spent 6725
cre@@ 6725
ino 6725
Airport 6723
voice 6720
core 6718
courses 6717
humanitarian 6714
election 6713
hot 6706
Amsterdam 6705
myself 6702
models 6698
defence 6697
Click 6691
evidence 6689
middle 6683
Ã­@@ 6677
union 6673
implementing 6670
consumption 6670
Services 6666
ahead 6659
ig@@ 6653
dangerous 6650
gain 6648
criminal 6647
mer@@ 6643
negative 6641
happened 6635
adoption 6629
ats 6629
ban 6627
ancient 6627
database 6627
fl@@ 6626
north 6625
impossible 6625
producers 6622
ner 6622
agencies 6616
anyone 6615
EC 6612
Swiss 6611
Christian 6605
balanced 6602
combination 6598
concrete 6596
immediate 6595
York 6593
spending 6591
statements 6588
elected 6586
brand 6583
campaign 6582
changing 6579
studies 6577
translation 6576
instance 6574
format 6572
announced 6570
ja 6570
shop 6566
shared 6564
fiscal 6564
carefully 6563
wood 6563
recognition 6561
detail 6560
respond 6558
Europeans 6547
shower 6546
raise 6531
described 6530
cuisine 6530
door 6528
26 6527
Firstly 6526
Su@@ 6523
acts 6522
IN@@ 6522
ak 6520
calling 6517
guarantees 6515
ges 6512
genuine 6508
resort 6505
black 6504
truly 6503
territory 6498
released 6497
membership 6492
28 6488
attractive 6485
ens 6478
propose 6473
reception 6469
article 6468
trading 6467
introduce 6465
religious 6459
Justice 6458
exhibition 6455
AR@@ 6452
architecture 6450
sides 6448
availability 6448
African 6443
AT@@ 6441
Debian 6441
Euro 6440
inform 6436
ines 6434
ber 6427
coffee 6426
improvement 6422
advance 6415
fear 6414
continues 6411
seek 6407
beaches 6401
Sch@@ 6400
television 6399
passed 6398
ore 6396
votes 6395
names 6394
id 6384
sis 6383
Democrats 6378
cars 6378
deep 6373
figures 6372
ste@@ 6372
IT@@ 6368
unless 6363
acc@@ 6360
possibilities 6358
au 6357
relax 6355
ton 6352
allowing 6347
wishes 6346
2.@@ 6346
ven@@ 6343
skills 6337
element 6337
bur@@ 6336
desire 6331
learning 6331
greatest 6330
unacceptable 6329
na 6329
reservation 6326
obtain 6325
combined 6323
Turkish 6318
insurance 6317
ics 6314
charged 6308
Green 6307
sun 6307
sets 6305
participate 6304
ring 6304
forced 6297
Research 6291
ently 6285
yang 6285
closer 6282
Linux 6281
31 6277
registered 6277
unfortunately 6274
claims 6273
firm 6269
reliable 6268
Prime 6268
Ac@@ 6263
strongly 6251
tasks 6251
asylum 6250
failed 6248
Every 6246
trip 6243
Board 6242
win 6241
establishing 6238
enables 6235
meters 6231
completed 6230
WTO 6227
sensitive 6223
1998 6222
devices 6219
manage 6217
pictures 6211
installed 6208
Greek 6200
entitled 6200
35 6192
enormous 6192
Irish 6192
ice 6185
por@@ 6185
kept 6181
bear 6180
Great 6179
Due 6177
color 6176
elegant 6174
button 6164
Dis@@ 6163
Inter@@ 6162
Such 6161
permanent 6159
individuals 6159
fer@@ 6158
arrival 6156
contain 6155
river 6155
packages 6154
stands 6151
science 6149
perspective 6145
export 6143
court 6138
sort 6131
surrounding 6130
platform 6130
corporate 6127
surface 6121
exercise 6115
drawn 6114
urgent 6113
weapons 6109
sale 6109
super@@ 6103
compared 6103
stone 6103
Museum 6101
break 6097
factors 6094
ade 6094
im 6094
mm 6093
Another 6092
j 6090
coast 6090
fying 6080
booking 6080
dan 6080
dedicated 6076
ological 6065
disease 6065
ass@@ 6062
unto 6062
convinced 6057
moving 6053
Yet 6048
initial 6042
contrary 6038
biggest 6038
weight 6031
nearby 6031
beauty 6030
vision 6022
holidays 6019
ger 6016
attack 6015
45 6014
ships 6012
Eastern 6012
Trade 6012
controls 6010
Gra@@ 6010
piece 6008
von 6006
sal@@ 6002
med 6001
granted 5997
foot 5997
Kosovo 5996
condition 5995
organization 5994
extended 5993
outcome 5990
Health 5981
zation 5981
advertising 5980
Regulation 5980
Tra@@ 5979
transparent 5978
Nevertheless 5974
IC@@ 5974
definition 5966
storage 5966
payments 5965
unable 5958
write 5957
che 5957
totally 5956
conclusions 5950
St. 5950
relaxing 5946
ian 5941
institution 5939
recommend 5938
organised 5938
Netherlands 5937
grounds 5930
commitments 5929
memory 5928
church 5927
Palestinian 5924
pri@@ 5923
Man@@ 5921
candidate 5920
comment 5918
paragraph 5916
device 5908
zone 5907
claim 5906
neither 5906
14@@ 5904
EC@@ 5903
square 5903
Business 5901
laid 5895
accessible 5888
discover 5884
sha@@ 5882
mass 5878
railway 5878
tried 5877
trans@@ 5866
Per@@ 5864
29 5863
rightly 5861
ER@@ 5860
ano 5859
story 5851
advice 5847
limits 5846
cra@@ 5845
Foreign 5839
chosen 5834
ambitious 5833
Portugal 5831
achieving 5829
tur@@ 5825
Ber@@ 5821
@ 5821
remind 5815
Thus 5813
Vienna 5812
saw 5810
obligations 5809
rent 5808
maintenance 5806
ori@@ 5799
independence 5798
flight 5797
IS@@ 5796
Constitution 5796
EN@@ 5794
decades 5792
RE@@ 5790
attractions 5789
window 5788
targets 5784
artists 5783
expression 5780
tor@@ 5780
sting 5778
Guest 5776
continuing 5773
AL@@ 5768
honourable 5765
perfectly 5761
tes 5760
seven 5756
medi@@ 5755
engine 5755
vehicle 5753
agency 5749
valid 5745
Val@@ 5745
background 5744
fin@@ 5743
ingly 5743
guide 5742
interface 5742
equality 5737
ST@@ 5737
successfully 5734
mountains 5734
promotion 5729
deliver 5726
ur 5725
host 5724
intervention 5723
ster 5721
title 5720
AS@@ 5720
asking 5718
obviously 5718
Center 5711
ve@@ 5703
install 5703
goals 5698
nation 5698
constantly 5693
signal 5686
print 5686
contained 5685
race 5684
bra@@ 5683
capable 5679
physical 5679
Management 5677
colleague 5671
all@@ 5669
species 5668
books 5667
testing 5666
mark 5666
om 5664
du 5655
luxury 5654
operate 5653
23@@ 5652
AC@@ 5650
bringing 5646
exp@@ 5645
merely 5643
expenditure 5643
ite 5639
ju@@ 5638
mu@@ 5636
obvious 5629
unit 5627
approximately 5623
seeking 5621
planned 5621
communities 5621
situations 5619
nearly 5619
min@@ 5618
&apos;ve 5617
yesterday 5616
# 5614
aircraft 5608
tors 5608
factor 5605
contents 5605
qualified 5604
update 5604
substantial 5603
ised 5597
pointed 5595
Those 5592
GDP 5589
binding 5589
alism 5586
category 5586
Latin 5586
Can 5584
ff@@ 5582
governance 5580
tim@@ 5579
prevention 5578
recovery 5573
putting 5572
@@ 5570
Austrian 5569
dynamic 5569
Se@@ 5569
Star 5569
recommendations 5567
Federal 5565
ely 5563
Association 5563
bars 5563
Booking.com 5562
keeping 5558
club 5555
rapid 5550
12@@ 5545
bl@@ 5544
attacks 5543
1997 5541
No@@ 5541
surrounded 5541
monitor 5540
outstanding 5536
Are 5535
ann@@ 5535
someone 5534
mechanism 5531
resulting 5530
manufacturing 5528
arms 5524
bath 5523
fuel 5523
named 5521
causes 5520
leads 5520
route 5519
consistent 5518
multi 5516
ou 5516
lake 5515
tics 5510
expensive 5508
smaller 5506
meaning 5505
cl@@ 5502
Sp@@ 5498
van 5497
object 5496
System 5496
tly 5494
guaranteed 5491
strengthening 5489
extend 5487
disposal 5485
landscape 5485
Pi@@ 5485
participants 5475
furnished 5475
glass 5474
waiting 5473
Club 5472
Both 5471
fac@@ 5470
buffet 5469
tan@@ 5466
determined 5466
Ñ@@ 5465
Or@@ 5461
ws 5458
thereby 5457
phase 5455
turned 5451
consists 5450
spread 5449
identity 5449
responsibilities 5447
primary 5446
ths 5445
touch 5443
older 5440
los 5434
compliance 5432
Agency 5429
orders 5424
dri@@ 5416
ery 5411
conclude 5409
Sa@@ 5405
ce@@ 5403
Ab@@ 5401
Other 5399
Summit 5398
registration 5398
acceptable 5397
ran@@ 5394
nations 5392
Si@@ 5388
consensus 5387
driving 5386
examples 5381
UN@@ 5381
ES@@ 5381
standing 5380
Rules 5373
Ñ@@ 5373
dra@@ 5371
industries 5367
Sweden 5366
flow 5366
Information 5366
brings 5365
Bi@@ 5358
addressed 5357
explain 5355
ists 5355
association 5350
contemporary 5346
syn@@ 5344
patients 5336
Go@@ 5334
treated 5333
plus 5330
refugees 5328
tests 5327
berg 5325
serves 5323
hand@@ 5320
satellite 5309
previously 5306
br@@ 5306
adequate 5305
store 5305
ff 5301
photos 5301
THE 5300
pleasure 5298
cks 5297
urban 5294
technological 5294
diversity 5289
investments 5289
Restaurant 5289
primarily 5286
ker 5285
sol@@ 5285
gar@@ 5283
liability 5278
forest 5278
schools 5270
lose 5270
leadership 5270
entered 5268
dimension 5268
star@@ 5268
not@@ 5264
Grand 5264
Any 5262
con 5262
To@@ 5260
representative 5258
ined 5251
delay 5250
talks 5244
Red 5243
notice 5242
steel 5238
stations 5233
Environment 5232
Tri@@ 5232
evaluation 5231
Located 5231
discussing 5230
existence 5230
75 5229
lic@@ 5228
versions 5225
spaces 5224
gre@@ 5223
multiple 5217
marked 5213
kinds 5212
Mor@@ 5210
za 5210
and@@ 5205
Romania 5198
Enterprise 5196
conduct 5195
ched 5188
met@@ 5187
letter 5186
Euro@@ 5186
copy 5184
sec@@ 5182
sanctions 5179
remove 5179
ended 5177
els 5176
Rome 5173
Lake 5170
aries 5166
delivered 5163
fu@@ 5161
vel@@ 5159
requested 5157
represented 5156
competence 5156
southern 5155
controlled 5155
Thanks 5152
Despite 5151
affect 5147
mechanisms 5139
accounts 5139
13@@ 5138
felt 5137
approval 5133
Ã³@@ 5133
smoking 5124
cally 5124
dealt 5123
rail 5120
32 5111
wealth 5110
prepare 5108
author 5108
Mi@@ 5106
suite 5104
fe@@ 5103
Qu@@ 5097
mid 5097
sted 5095
golf 5095
Software 5093
DVD 5093
opposite 5090
skin 5088
si 5086
mutual 5085
oral 5083
onto 5082
her@@ 5082
urge 5080
convenient 5080
fication 5079
significantly 5077
radio 5077
Bar 5070
profit 5069
speakers 5069
Ni@@ 5062
sell 5062
amongst 5061
shape 5061
launched 5061
ars 5061
Dutch 5059
ther@@ 5057
gets 5055
stra@@ 5054
strength 5053
manufacturers 5049
consultation 5045
acting 5042
helping 5042
Her@@ 5034
Microsoft 5034
sto@@ 5031
drugs 5021
ro 5018
mann 5011
Britain 5010
ser@@ 5009
feeling 5008
highlight 5006
spa 5004
knows 5003
runs 5003
Company 5003
Two 5000
length 5000
relatively 4998
ement 4996
oc@@ 4995
ir 4995
ved 4994
politicians 4993
mode 4990
register 4989
improvements 4987
moved 4987
fruit 4986
rejected 4985
taxes 4983
Minutes 4979
presentation 4978
sold 4978
ft 4977
obligation 4976
em 4974
truth 4966
faced 4966
quick 4959
Energy 4954
default 4952
bro@@ 4951
fit 4951
except 4949
compensation 4948
For@@ 4947
heavy 4947
je 4947
Enjoy 4946
attitude 4943
tr@@ 4939
covers 4938
expectations 4936
back@@ 4935
are@@ 4935
reply 4935
experiences 4932
eight 4929
Before 4927
respective 4923
fighting 4923
CO@@ 4918
latter 4914
ara 4914
1996 4904
president 4903
appeal 4902
jo@@ 4899
engineering 4899
cul@@ 4894
Breakfast 4891
ei@@ 4890
expertise 4889
requests 4886
inv@@ 4886
ek@@ 4886
burden 4884
resolve 4883
ear@@ 4882
finding 4880
suffering 4880
IS 4878
solve 4875
soft 4875
trees 4873
ral 4872
tical 4872
regret 4864
discovered 4863
emphasis 4862
locations 4862
audio 4862
units 4858
das 4854
reflect 4853
98 4851
drawing 4850
producing 4848
Very 4847
recognise 4847
cal@@ 4847
we@@ 4847
cycle 4842
Â° 4835
Market 4832
intention 4831
fill 4831
destination 4826
largely 4825
streets 4825
comply 4824
figure 4824
sen 4824
eye 4824
Find 4824
RO@@ 4820
emphasise 4819
exists 4817
amp@@ 4816
recommended 4815
museum 4814
boat 4812
danger 4811
disaster 4806
extension 4805
helps 4805
applicable 4804
whatever 4803
ward 4802
affairs 4801
diseases 4800
articles 4798
Ba@@ 4798
uni@@ 4795
constant 4794
websites 4790
je@@ 4789
substances 4788
dishes 4787
holding 4786
mobility 4786
resi@@ 4785
cap@@ 4784
healthy 4781
privacy 4781
taste 4780
Art 4778
operators 4777
ga 4774
Chamber 4768
ke@@ 4767
helped 4764
millions 4764
advantages 4763
temperature 4763
wall 4762
browser 4762
arrangements 4758
FR 4754
So@@ 4753
ron@@ 4750
eu@@ 4750
water@@ 4749
officials 4749
centres 4747
wind 4745
fraud 4741
wed 4740
error 4738
fail 4736
appreciate 4735
proof 4735
delegation 4735
conditioning 4735
IP 4733
renewable 4731
ga@@ 4730
happens 4726
ering 4726
naturally 4723
Afghanistan 4723
bedroom 4718
Le 4717
recognised 4712
involving 4711
output 4710
Do@@ 4707
personally 4705
objects 4704
reaching 4699
Instead 4699
confirmed 4695
spring 4689
opposed 4689
waters 4689
ye 4688
ours 4687
head@@ 4687
Programme 4687
handling 4686
texts 4683
exclusively 4683
Cal@@ 4682
peoples 4681
cheap 4681
valuable 4679
Villa 4677
Take 4674
charming 4674
the@@ 4672
bre@@ 4671
father 4671
command 4670
criticism 4669
Japanese 4665
band 4662
Munich 4658
whilst 4657
sm@@ 4655
stri@@ 4653
blue 4645
John 4644
Home 4643
ced 4637
ek 4637
determine 4636
furniture 4636
treaty 4635
cing 4634
firstly 4633
creative 4633
noise 4633
ach@@ 4633
Institute 4632
tru@@ 4629
Gi@@ 4629
Note 4625
e.g. 4624
temporary 4622
work@@ 4622
east 4620
5.@@ 4618
protecting 4615
OS 4615
volume 4613
leaving 4612
-- 4612
friend 4610
constructive 4606
equally 4606
30@@ 4606
air@@ 4606
acy 4603
organizations 4603
Ð°@@ 4603
â¢ 4603
amounts 4601
involvement 4600
combating 4600
Google 4596
wait 4595
mer 4594
prove 4591
charges 4591
El@@ 4590
NATO 4589
increases 4586
hor@@ 4583
ant@@ 4583
cent 4580
massive 4575
chain 4575
fy 4575
bedrooms 4575
dan@@ 4574
ley 4573
strategies 4571
mandate 4567
Paper 4563
collective 4563
sexual 4562
looks 4561
obtained 4558
ically 4557
Best 4554
ell@@ 4553
directives 4552
Col@@ 4551
Swedish 4550
passengers 4550
automatic 4540
entertainment 4539
Rule 4538
offices 4537
pping 4536
hostels 4536
west 4536
Private 4536
Where 4534
Pa@@ 4533
tours 4531
bri@@ 4528
issued 4527
died 4526
carbon 4526
contributions 4523
ged 4521
meat 4521
dining 4521
journey 4519
willing 4516
impressive 4516
awareness 4513
Control 4512
nu@@ 4510
pu@@ 4509
Use 4509
happening 4507
removed 4506
weather 4506
parents 4505
Ministers 4503
perform 4501
ular 4500
ess@@ 4499
cold 4497
ai 4497
Check 4497
communications 4496
dly 4496
ban@@ 4494
exceptional 4492
gender 4492
Foundation 4491
hit 4490
watch 4490
ching 4490
atic 4489
assist 4485
define 4481
Safety 4480
reserve 4480
ado 4480
Financial 4479
discharge 4479
repeat 4477
01 4477
restrictions 4476
Sh@@ 4474
Strategy 4474
block 4473
remaining 4472
Monetary 4470
Am@@ 4468
contracts 4464
Lord 4464
Can@@ 4464
eyes 4461
mp@@ 4461
dinner 4461
launch 4460
defend 4460
proved 4458
worse 4457
rapporteurs 4456
zi@@ 4456
depends 4450
maintained 4449
walls 4447
residence 4446
regulatory 4445
EL@@ 4445
outdoor 4445
continent 4444
yes 4443
flat 4443
3.@@ 4442
divided 4441
Croatia 4439
abroad 4439
El 4438
debates 4437
leisure 4437
reserves 4436
liberalisation 4436
organized 4436
gone 4435
Over 4434
una 4434
Alliance 4433
Welcome 4433
ca@@ 4431
Last 4430
Their 4428
requirement 4426
seeing 4426
vast 4421
Arab 4419
edge 4418
creates 4418
couple 4418
finished 4418
Charter 4418
ID 4417
sa 4415
preparation 4412
Au@@ 4412
cutting 4412
az@@ 4412
vers 4411
ots 4411
dec@@ 4409
colour 4407
6.@@ 4407
down@@ 4404
ought 4402
ada 4398
bs 4397
password 4392
identify 4391
investors 4389
characteristics 4387
conflicts 4387
ang@@ 4386
Frankfurt 4386
mat@@ 4385
occasion 4377
ration 4376
ends 4374
ko@@ 4374
ures 4372
Polish 4372
ethnic 4371
99 4369
ein 4367
resolutions 4363
opinions 4363
Korea 4363
signs 4362
newly 4361
sta@@ 4361
focused 4360
inflation 4358
cable 4353
blood 4353
i.e. 4352
ay 4351
dates 4349
precise 4348
returned 4348
our@@ 4348
connections 4348
roads 4346
facts 4343
str@@ 4343
Bulgaria 4342
ki@@ 4339
emerging 4336
pr@@ 4335
La@@ 4335
Nice 4334
lets 4333
ah@@ 4333
understood 4332
loc@@ 4331
extreme 4328
Time 4326
visible 4325
involve 4323
marks 4323
row 4321
fantastic 4320
Ho@@ 4316
facilitate 4314
Costa 4312
doors 4311
recommendation 4310
hundreds 4310
ultimately 4308
joined 4308
counter 4307
regularly 4307
ty@@ 4306
doesn 4305
Ð´@@ 4305
operational 4304
sel@@ 4303
migration 4299
Fi@@ 4297
mor@@ 4296
sky 4295
customs 4293
Bu@@ 4292
4.@@ 4291
sters 4290
spot 4290
une 4289
castle 4288
Under 4287
conducted 4285
messages 4285
clo@@ 4284
Air 4282
ki 4275
Kar@@ 4275
tel@@ 4272
Ðµ@@ 4272
Ladies 4270
MEPs 4270
Ðº@@ 4269
intend 4264
ens@@ 4264
frequently 4263
pieces 4263
sian 4263
Street 4263
faster 4262
app@@ 4260
load 4260
ture 4260
grow 4259
owners 4258
ory 4257
Book 4257
minority 4255
fee 4255
performed 4254
flo@@ 4254
seat 4253
effectiveness 4252
Procedure 4251
gs 4251
grant 4250
AD@@ 4248
welfare 4248
Du@@ 4248
alisation 4246
terrorist 4246
album 4246
400 4245
tion@@ 4244
lay 4244
parliaments 4244
OR@@ 4236
Q 4234
owner 4233
electricity 4230
tional 4230
confirm 4226
Canada 4225
deals 4224
emergency 4223
land@@ 4223
ales 4223
noted 4222
Brazil 4221
universal 4220
Data 4219
impression 4217
Day 4216
Har@@ 4214
tures 4214
pollution 4213
Cyprus 4212
Ñ@@ 4211
glad 4210
demanding 4210
bor@@ 4209
proud 4209
surroundings 4209
submit 4207
career 4207
2020 4207
pan@@ 4205
properties 4204
license 4204
Soviet 4203
hardware 4202
topic 4201
mostly 4201
.... 4199
97 4199
http 4199
formed 4196
follows 4195
Station 4194
fil@@ 4192
tic@@ 4191
visa 4191
drink 4191
Hotels 4190
He@@ 4188
somewhat 4187
Israeli 4186
classic 4184
1,@@ 4182
iz@@ 4179
pla@@ 4176
150 4175
95 4174
displayed 4173
White 4172
absolute 4172
subsidies 4170
chemical 4170
widely 4167
imposed 4166
val@@ 4165
depending 4165
corruption 4164
Shi@@ 4164
driver 4161
contrast 4160
accompanied 4157
SP@@ 4155
SMEs 4153
1995 4153
Luxembourg 4152
familiar 4151
bottom 4148
Roman 4148
functioning 4147
bul@@ 4147
multi@@ 4146
islands 4144
che@@ 4144
meant 4142
ports 4141
transportation 4140
intellectual 4140
judicial 4138
sauna 4138
ast 4137
renovated 4136
firms 4135
Saint 4133
cking 4133
award 4132
cri@@ 4129
printing 4129
declared 4126
AL 4126
heating 4126
hom@@ 4125
Ñ@@ 4123
cat@@ 4122
decorated 4122
answers 4120
Rec@@ 4119
Roma 4119
sight 4118
western 4118
af@@ 4117
northern 4117
metal 4116
ple@@ 4114
Given 4111
definitely 4109
ok@@ 4109
settings 4109
ticket 4101
woman 4100
Mal@@ 4099
statistics 4096
compatible 4095
eastern 4095
indicated 4091
assets 4088
Whether 4087
tested 4087
maintaining 4085
ns 4085
balcony 4085
techniques 4083
char@@ 4082
visited 4081
ss 4081
mel@@ 4081
wn 4079
ming 4076
fre@@ 4076
grateful 4071
earth 4070
wo@@ 4069
heritage 4066
involves 4066
appointed 4064
updated 4063
declaration 4062
bound 4061
reported 4061
resistance 4060
Open 4060
valley 4058
transition 4057
prefer 4054
actively 4053
ING 4052
starts 4051
1st 4050
master 4048
Ver@@ 4042
mother 4041
alised 4040
library 4038
profile 4037
delighted 4037
wor@@ 4036
elling 4036
De 4036
River 4034
demonstrated 4033
demonstrate 4032
trafficking 4032
pped 4031
satisfied 4030
Old 4028
Square 4026
hall 4025
brief 4024
showing 4024
quarter 4023
ub@@ 4023
96 4022
Get 4022
interior 4021
wines 4018
pe 4014
cia 4014
contacts 4013
inhabitants 4011
drivers 4009
ongoing 4009
tro@@ 4007
hair 4007
planet 4006
careful 4005
LE@@ 4005
Dr. 4002
strict 4001
reject 3999
vacation 3998
channels 3996
US@@ 3996
Portuguese 3994
presents 3994
log 3991
fashion 3990
drug 3990
personnel 3989
pension 3989
flights 3983
heat 3983
competent 3982
concluded 3982
expert 3982
percent 3978
stored 3978
lists 3977
PT 3976
tourists 3976
invite 3975
arrive 3975
relaxation 3974
rapidly 3972
hin@@ 3972
spoken 3972
ella 3971
collaboration 3968
feed 3968
Ru@@ 3968
Å¡@@ 3967
bilateral 3966
appearance 3966
committees 3965
occur 3965
settlement 3963
regarded 3961
passenger 3960
fies 3960
rock 3960
provider 3957
Hungary 3957
MS 3956
possibly 3954
farm 3949
Jo@@ 3949
Sal@@ 3949
justified 3948
immigrants 3948
und@@ 3947
speaker 3946
Perhaps 3942
hu@@ 3941
oriented 3940
apart 3936
ght 3934
exciting 3931
Bal@@ 3927
gold 3927
ll 3926
afternoon 3926
overcome 3924
crimes 3924
artist 3922
expansion 3919
dependent 3919
Schengen 3918
corner 3917
IN 3917
ss@@ 3916
visiting 3916
stronger 3911
nights 3911
Palace 3911
configuration 3911
educational 3909
Yes 3908
raw 3908
saving 3907
entrance 3907
suites 3907
desired 3906
partly 3904
bridge 3903
Ra@@ 3903
constitutional 3900
Copenhagen 3900
explore 3897
Ju@@ 3896
legitimate 3895
minorities 3894
ong 3894
od@@ 3894
Amendments 3893
determination 3893
match 3892
listen 3891
anti@@ 3889
eh@@ 3889
qui@@ 3888
ti 3888
remote 3887
las 3886
gri@@ 3884
lasting 3883
7.@@ 3882
assume 3881
recorded 3881
Pact 3881
foundation 3878
credibility 3878
depth 3873
functional 3872
zz@@ 3872
theme 3872
tackle 3872
ach 3870
replaced 3867
Special 3867
aged 3867
Protection 3864
fra@@ 3863
respected 3863
documentation 3863
ational 3862
Well 3860
cash 3860
tickets 3857
containing 3856
destruction 3856
gen 3856
Gar@@ 3856
50@@ 3856
pres@@ 3854
ising 3853
Second 3853
solid 3851
Â² 3850
dic@@ 3849
ending 3849
owned 3849
exit 3847
U.S. 3847
Funds 3844
counter@@ 3844
com 3844
Vice 3842
towns 3842
copyright 3841
satisfaction 3840
ill@@ 3840
Question 3840
generated 3837
adopting 3837
Baltic 3837
MA@@ 3836
channel 3835
48 3834
2011 3833
alization 3833
awarded 3832
See 3830
plays 3829
ben@@ 3829
lovely 3828
Belgium 3827
ame 3827
department 3827
Friday 3826
gener@@ 3826
Mexico 3824
phrase 3823
fla@@ 3822
Pakistan 3821
ov@@ 3821
occasions 3820
constitution 3820
poli@@ 3818
ine@@ 3816
Me@@ 3816
Chi@@ 3813
scheme 3813
citizen 3812
deficit 3811
lat@@ 3809
ung@@ 3808
rising 3806
films 3806
fitness 3806
OF 3805
soci@@ 3805
gardens 3804
transactions 3803
centuries 3802
Prague 3800
forum 3798
usual 3796
TH@@ 3796
taxation 3792
frame 3790
facility 3789
routes 3788
elsewhere 3787
subsidiarity 3784
housing 3784
replace 3784
sch@@ 3784
battle 3783
Applause 3781
sharing 3781
manufacturer 3780
blog 3780
Church 3778
hostel 3778
windows 3775
sun@@ 3774
youth 3772
sending 3770
banking 3770
plenty 3770
Belarus 3770
ls 3769
shares 3767
sugar 3765
professionals 3764
encouraging 3763
\ 3761
corresponding 3760
Following 3758
puts 3757
eventually 3754
lounge 3754
winning 3752
gli@@ 3750
Spa 3750
bly 3748
equ@@ 3747
Ti@@ 3747
division 3746
correctly 3745
fa@@ 3743
micro@@ 3742
argument 3741
identified 3739
cosy 3739
bas@@ 3734
ser 3734
exports 3730
electric 3728
lift 3727
Ð¸@@ 3727
ency 3726
lots 3726
slow 3724
lan@@ 3721
component 3720
stance 3719
courts 3718
pm 3718
lie 3717
vulnerable 3717
Structural 3715
addresses 3714
eng@@ 3714
Non 3714
inclusion 3713
mit 3713
ger@@ 3712
count 3712
pose 3711
cies 3711
suppliers 3711
interpretation 3709
asing 3709
globalisation 3708
wrote 3708
army 3708
distributed 3707
directed 3707
del@@ 3705
extraordinary 3705
33 3703
falls 3701
Will 3700
bike 3700
considering 3699
decisive 3699
Cre@@ 3699
preparing 3698
lin 3698
Hungarian 3697
Description 3697
ell 3696
&apos;m 3696
AND 3694
Within 3692
cuts 3691
yed 3690
spectacular 3690
providers 3688
dr@@ 3688
def@@ 3686
Without 3684
EL 3684
Z 3683
pp@@ 3682
cy@@ 3682
64 3682
IM@@ 3682
behaviour 3681
emb@@ 3680
ey 3680
appeared 3677
secret 3676
cru@@ 3675
theory 3672
employed 3670
excessive 3669
slightly 3667
resolved 3665
swe@@ 3665
EN 3664
post@@ 3663
milk 3663
eri@@ 3662
straight 3660
ire 3660
proposes 3660
scene 3660
ash@@ 3659
Action 3657
absence 3655
pers 3655
PL 3654
impose 3652
mini 3648
Madrid 3646
moral 3645
ha 3644
plenary 3644
exception 3643
rep@@ 3643
rental 3640
VAT 3637
patent 3637
generate 3636
Design 3635
zes 3634
ensures 3633
ai@@ 3633
hundred 3632
Cam@@ 3632
van@@ 3625
surely 3624
suffer 3624
ning 3624
ads 3622
examine 3621
university 3619
substance 3618
miles 3618
stylish 3618
sum 3617
Northern 3617
representation 3617
enhance 3616
England 3616
mem@@ 3615
adults 3615
Tor@@ 3614
magnificent 3613
â¢ 3608
cast 3607
cont@@ 3607
maritime 3606
Or 3605
uri@@ 3605
tobacco 3605
referendum 3605
Ne@@ 3604
Thirdly 3603
Women 3602
duties 3601
carrying 3599
intensive 3596
savings 3596
artistic 3595
fle@@ 3594
thousand 3593
filled 3592
trend 3592
Bush 3591
id@@ 3591
pursue 3591
ill 3588
diverse 3586
zu 3585
invest 3584
ining 3584
concepts 3583
formal 3582
ordinary 3582
subjects 3581
selling 3579
productivity 3578
audi@@ 3578
ISO 3577
Bra@@ 3577
proposing 3576
gained 3576
complicated 3575
supplies 3575
domain 3575
Islamic 3573
ishing 3570
voluntary 3569
solely 3568
fore@@ 3568
abuse 3568
Good 3567
OR 3567
Ã¡ 3566
applying 3565
ED 3563
proven 3563
accurate 3561
fÃ¼r 3559
enabled 3558
Assembly 3558
Ñ@@ 3557
packaging 3556
forests 3555
34 3554
Congress 3553
Technology 3553
traditions 3552
politically 3552
updates 3552
COM 3550
weekend 3549
Nos 3548
lessons 3548
blo@@ 3548
therapy 3548
alized 3548
everyday 3546
Ð¼@@ 3545
toward 3544
Ko@@ 3544
MO@@ 3543
p.m. 3542
wonder 3540
Code 3539
1990 3539
pal@@ 3537
prosperity 3536
proceed 3535
Egypt 3535
realistic 3534
assure 3534
nevertheless 3532
consent 3531
Ta@@ 3531
deposit 3531
sia 3530
trial 3528
specified 3527
renowned 3524
Federation 3523
Like 3522
drop 3521
War@@ 3521
wear 3520
shipping 3518
Ste@@ 3518
greatly 3517
Earth 3516
clubs 3516
ping 3513
Report 3509
ay@@ 3508
Americans 3506
cent@@ 3505
suggested 3502
Mer@@ 3502
36 3501
gro@@ 3500
08 3499
Ð±@@ 3499
Framework 3497
Br@@ 3495
Dra@@ 3493
paying 3493
arrived 3493
sou@@ 3493
philosophy 3491
Santa 3489
societies 3488
villages 3487
promised 3484
EADS 3484
LA@@ 3483
colours 3481
suggestions 3480
attempts 3480
teams 3480
ata 3479
receiving 3475
virtual 3475
King 3475
topics 3474
Besides 3473
necessarily 3472
burg 3472
ACP 3471
Mu@@ 3471
sought 3470
imp@@ 3470
ern@@ 3470
Global 3470
enabling 3469
pos@@ 3468
supplier 3468
comparison 3467
tically 3466
Thursday 3464
arguments 3463
CO2 3463
killed 3463
label 3463
weak 3460
departure 3460
55 3458
spoke 3458
difficulty 3458
Legal 3456
web@@ 3454
sli@@ 3453
MP@@ 3453
pra@@ 3452
aci@@ 3451
depend 3450
Agriculture 3449
countryside 3449
description 3447
notes 3445
twenty 3444
mix 3443
1994 3443
invited 3443
farming 3443
pul@@ 3442
Sunday 3442
Site 3442
Atlantic 3441
Island 3441
elled 3439
Comp@@ 3438
drinks 3438
periods 3437
skiing 3437
roll 3436
treat 3434
Having 3433
tables 3433
constitute 3432
ona 3432
Festival 3432
ran 3431
aff@@ 3430
imports 3429
Year 3428
Obama 3428
directory 3427
Transport 3426
09 3424
AM@@ 3423
fourth 3422
united 3421
TO 3421
finish 3419
motor 3419
religion 3419
raising 3418
Comm@@ 3416
sta 3416
destroyed 3415
sm 3415
Secretary 3414
flows 3412
significance 3411
input 3411
atory 3411
disabled 3408
stars 3408
module 3408
succeed 3406
ride 3406
sheet 3406
tea 3406
estimated 3403
continuous 3403
armed 3402
leaves 3402
cooperate 3401
tree 3401
Guests 3400
ECB 3399
permitted 3398
patient 3398
emp@@ 3397
remained 3396
ered 3396
form@@ 3393
3D 3393
pat@@ 3392
allocated 3390
wal@@ 3388
School 3388
Pal@@ 3388
disk 3387
recognized 3387
freedoms 3384
connect 3384
reservations 3383
Media 3380
supposed 3379
negotiating 3376
ON 3375
ET@@ 3375
obliged 3374
RA@@ 3371
dream 3370
hill 3370
import 3370
Law 3370
productive 3368
enjoyed 3365
refers 3364
tation 3364
2013 3362
Ð½@@ 3362
ited 3360
rel@@ 3360
upper 3358
legally 3357
homes 3357
enti@@ 3357
covering 3355
ion 3354
cer@@ 3354
missing 3353
Desk 3351
suffered 3350
decade 3349
preventing 3349
min 3348
turning 3345
Royal 3344
edi@@ 3344
resource 3343
Act 3343
Town 3343
confirmation 3342
trips 3342
contributed 3341
mas@@ 3341
kers 3337
barriers 3336
sion@@ 3336
harmonisation 3335
gap 3335
cleaning 3334
hardly 3332
pun@@ 3332
tre@@ 3331
fly 3331
Mac@@ 3328
Black 3326
whereas 3325
introducing 3324
publication 3324
Hamburg 3324
dy@@ 3324
len@@ 3323
ize 3323
lived 3322
massage 3321
37 3319
Cas@@ 3318
tennis 3316
Monday 3314
Asian 3314
luxurious 3314
desk 3313
tou@@ 3312
festival 3312
ba 3311
conc@@ 3310
07 3310
programming 3308
fulfil 3308
movements 3308
ome 3308
Finland 3307
conventional 3307
Bor@@ 3305
sphere 3304
Hu@@ 3304
AS 3303
Ð»@@ 3303
supervision 3302
Socialist 3301
prime 3299
bio@@ 3299
ased 3298
specialist 3298
proceedings 3298
optim@@ 3298
art@@ 3297
my@@ 3296
explained 3295
sum@@ 3295
arise 3294
ko 3293
handle 3290
serving 3290
chi@@ 3288
stat@@ 3288
Strasbourg 3286
sections 3285
welcomed 3285
overview 3285
driven 3284
Page 3283
unforgettable 3282
Auditors 3278
Michael 3278
sustainability 3276
600 3276
Nor@@ 3275
cked 3275
enterprise 3275
dness 3275
CH@@ 3275
para 3275
lands 3274
mental 3274
Trek 3274
wider 3273
musical 3273
characters 3272
rare 3271
instructions 3270
severe 3270
Beach 3270
none 3266
III 3265
Bre@@ 3265
forthcoming 3262
labor 3262
ect 3261
manager 3261
8.@@ 3259
faith 3259
Barroso 3257
Bri@@ 3255
originally 3254
Ð¾@@ 3254
int 3253
functionality 3252
800 3252
delicious 3252
firmly 3250
beings 3249
sounds 3249
organic 3249
safeguard 3248
Tre@@ 3248
ences 3246
Stability 3246
welcomes 3245
ini@@ 3245
Through 3243
eli@@ 3242
cells 3242
reflected 3241
indicate 3240
ole 3240
bel@@ 3239
birth 3239
ap 3239
ins@@ 3239
24@@ 3238
ham@@ 3238
labelling 3237
obstacles 3235
ranging 3234
ven 3234
director 3234
restricted 3233
fees 3233
everybody 3232
parliament 3231
enhanced 3231
female 3231
ato 3230
transmission 3230
alist 3228
layer 3228
wards 3227
Char@@ 3226
parameters 3225
lau@@ 3224
losses 3222
lia 3222
Peter 3221
gallery 3220
thermal 3220
regardless 3219
xes 3218
revision 3218
adapt 3218
pure 3217
sation 3215
ables 3214
vessels 3214
ministers 3211
reflects 3211
9.@@ 3208
exploitation 3207
showed 3206
song 3206
stocks 3205
Situated 3205
football 3204
cancer 3203
ste 3202
inn@@ 3202
coordinated 3201
Facilities 3201
considerably 3200
realise 3200
UR@@ 3200
Serbia 3200
movie 3199
deb@@ 3198
imagine 3197
universities 3197
ately 3197
Food 3197
trac@@ 3196
decline 3195
acceptance 3194
modules 3193
classes 3193
sovereignty 3191
gr@@ 3190
collected 3190
saved 3189
speci@@ 3189
lunch 3189
hearing 3188
shift 3188
65 3187
Min@@ 3186
Should 3184
generations 3183
remarks 3181
nine 3181
Online 3180
fans 3179
PHP 3179
exclusion 3178
USB 3178
person@@ 3177
ware 3177
Australia 3177
internationally 3176
undoubtedly 3176
49 3176
43 3175
eat 3175
disasters 3172
pro 3172
combine 3172
ster@@ 3172
endorse 3170
info 3170
fleet 3169
sole 3168
errors 3166
looked 3165
investigation 3165
lo 3165
dead 3164
chair 3162
didn 3161
worthy 3159
Who 3159
isation 3157
LO@@ 3157
dignity 3156
ica 3156
nor@@ 3153
wellness 3152
cho@@ 3151
managing 3150
liberal 3150
mit@@ 3149
Tip 3149
DA@@ 3148
Paul 3147
studio 3145
Fo@@ 3144
snow 3144
believes 3141
PPE 3141
adapted 3139
welcoming 3139
fairly 3137
computers 3135
eurozone 3135
sit 3134
hospitality 3134
Fi 3134
25@@ 3133
Pri@@ 3131
SA@@ 3130
museums 3130
violations 3129
42 3129
ished 3128
worst 3127
reaction 3125
roots 3122
restructuring 3120
vit@@ 3120
ID@@ 3120
vol@@ 3119
Commissioners 3116
dies 3115
penalty 3115
Er@@ 3115
Systems 3115
Ð¿@@ 3115
shed 3114
hum@@ 3114
Putin 3114
subsequent 3113
Inn 3113
dry 3110
Geneva 3107
songs 3105
PDF 3104
liked 3102
ease 3102
excluded 3101
ol 3101
rely 3100
Wi 3100
root 3099
s.@@ 3097
At@@ 3092
bers 3092
trends 3090
ri 3090
Does 3089
Te@@ 3089
courage 3089
tend 3087
dollar 3087
checks 3086
non@@ 3086
accident 3085
oning 3084
equivalent 3083
protocol 3083
ene 3082
iled 3080
promise 3079
sex 3079
ON@@ 3077
equi@@ 3076
dark 3075
learned 3075
Valley 3075
clause 3074
deeply 3074
lock 3074
ment@@ 3074
guided 3074
Regional 3073
joining 3073
liber@@ 3072
restore 3071
assess 3070
IMF 3070
romantic 3070
19th 3069
transferred 3068
cultures 3068
symbol 3067
Express 3067
Vol@@ 3066
spec@@ 3065
ECU 3064
Im@@ 3063
Balkans 3063
PR@@ 3062
minister 3061
Saturday 3061
suit 3060
cas@@ 3060
freely 3058
Tur@@ 3057
38 3056
processed 3056
Ser@@ 3056
assembly 3056
Wi@@ 3055
restored 3053
ambi@@ 3053
wireless 3053
approve 3049
targeted 3048
Mc@@ 3048
supplied 3048
strengthened 3047
stages 3047
Music 3047
shadow 3046
CA@@ 3046
gers 3044
satisfy 3043
Next 3043
concentrate 3042
Card 3041
holds 3040
Venice 3040
Indian 3039
Agenda 3038
poly@@ 3038
consulting 3038
aside 3038
undertaken 3037
profits 3037
cle@@ 3037
utili@@ 3036
graphic 3033
Vo@@ 3030
pick 3030
Among 3028
ordered 3028
Hall 3028
Tourism 3027
cell@@ 3027
push 3026
Sub@@ 3024
printed 3024
ane 3022
travelling 3021
Hi@@ 3020
reliability 3020
Education 3020
200@@ 3019
ress 3018
Christmas 3018
fishermen 3015
Bay 3015
videos 3011
Ðµ 3010
compact 3009
threats 3008
reconstruction 3008
IL@@ 3008
logical 3007
Sk@@ 3006
edition 3006
aging 3005
Islands 3004
euros 3003
zer 3002
bal@@ 3001
missions 3001
Organisation 3000
cher 3000
factory 2999
Denmark 2999
Ã©s 2999
ili@@ 2999
struggle 2998
Real 2998
relative 2995
belief 2995
acknowledge 2993
Pas@@ 2993
Fe@@ 2992
39 2990
bit@@ 2990
parallel 2988
poses 2988
amenities 2986
prospects 2984
damages 2984
hal@@ 2982
--@@ 2982
produces 2981
ball 2981
treatments 2981
cell 2980
sh 2979
hon@@ 2979
Cri@@ 2979
tracks 2979
ie@@ 2979
anywhere 2977
kl@@ 2977
enn@@ 2977
entering 2976
amed 2976
designs 2974
arising 2973
stream 2973
ghts 2972
funded 2969
foot@@ 2969
Georgia 2968
boost 2967
85 2967
1992 2966
aling 2965
grown 2965
arian 2963
operates 2961
Culture 2961
DI@@ 2961
User 2961
briefly 2960
AB@@ 2958
everywhere 2958
forth 2958
ola 2955
ni 2953
presenting 2952
Golf 2952
engaged 2951
province 2950
belong 2950
underground 2949
hiking 2949
ris@@ 2948
pot@@ 2947
28@@ 2947
adding 2946
anniversary 2946
tal 2946
executive 2945
27@@ 2944
Dec@@ 2942
neighbouring 2942
budgets 2942
yer 2940
val 2939
plastic 2938
essentially 2937
sensible 2937
ecological 2937
normally 2934
Ap@@ 2933
candidates 2933
Tour 2933
pillar 2928
reserved 2928
proportion 2927
wa 2926
coun@@ 2925
heading 2922
portfolio 2921
Ð²@@ 2921
diplomatic 2920
gl@@ 2919
student 2919
Executive 2919
attached 2918
reputation 2917
ena 2916
sup@@ 2915
phenomenon 2914
Director 2914
sand 2914
individually 2913
switch 2913
narrow 2913
amazing 2913
Ci@@ 2912
cm 2912
rit@@ 2911
Gro@@ 2911
lec@@ 2911
collect 2910
06 2910
sights 2910
manufacture 2909
listings 2909
Bur@@ 2907
ef@@ 2907
appropriations 2906
arch@@ 2904
ands 2904
pretty 2904
miss 2904
Family 2904
occurred 2903
na@@ 2903
NGOs 2902
sufficiently 2900
CAP 2900
mal@@ 2898
Consequently 2897
floors 2894
ama 2893
kernel 2892
SE@@ 2891
Die 2891
highlights 2890
causing 2889
intends 2889
Consumer 2889
03 2888
relates 2887
urgently 2887
02 2885
IA 2885
territorial 2884
operated 2884
Mr. 2884
PL@@ 2883
boot 2883
mistake 2882
begins 2882
picturesque 2882
heads 2881
efficiently 2879
referring 2879
Castle 2879
shot 2877
twice 2877
dad 2877
Syria 2876
pressing 2876
ME@@ 2876
panoramic 2876
scientists 2875
Belgian 2875
adds 2874
ace 2873
inner 2873
ani 2873
widespread 2872
Ca@@ 2872
recognize 2872
till 2871
ked 2868
engines 2867
Plan 2866
teaching 2866
panel 2866
Lin@@ 2862
magazine 2862
honour 2861
succeeded 2861
riding 2861
solar 2861
horse 2860
cam@@ 2860
revenue 2859
ath 2858
producer 2858
motor@@ 2857
Sur@@ 2857
warning 2855
Is@@ 2855
fan@@ 2855
ex 2854
olive 2854
varied 2853
Be 2853
servers 2853
oni@@ 2852
inspired 2851
consequence 2851
gradually 2850
dol@@ 2850
geographical 2849
resulted 2849
ot 2849
cious 2849
liable 2848
gn@@ 2848
graphics 2848
Bel@@ 2848
recording 2847
usage 2847
wild 2846
seats 2845
stores 2845
agents 2844
alcohol 2843
ink 2843
coherent 2842
ari 2842
Budgets 2839
wage 2839
ist@@ 2838
wh@@ 2838
acquired 2837
medicine 2837
Front 2836
letters 2836
custom@@ 2835
concert 2834
engage 2832
virtually 2831
m2 2831
execution 2829
highlighted 2829
formats 2829
ash 2827
surprise 2827
victory 2827
Casino 2827
ase 2826
script 2826
Sec@@ 2825
insi@@ 2822
feet 2822
integrate 2822
incorporated 2821
makers 2821
crew 2820
Martin 2820
off@@ 2819
son@@ 2819
inf@@ 2819
visual 2819
considers 2817
sophisticated 2817
dem 2817
index 2815
meal 2815
Lastly 2814
troops 2814
Ombudsman 2813
rop@@ 2812
affects 2810
lobby 2809
passing 2807
favourable 2806
strictly 2805
Ben@@ 2805
tively 2804
meets 2803
crises 2803
catch 2802
Don 2802
Server 2802
ts@@ 2801
ette 2798
pas@@ 2798
Customer 2798
constructed 2795
44 2795
bin@@ 2795
mouth 2794
ulate 2792
encouraged 2792
Protocol 2792
vis 2791
vice 2791
cou@@ 2791
Gal@@ 2789
Fl@@ 2789
oldest 2789
kilometres 2789
uniform 2787
lar@@ 2787
specialists 2787
explanation 2786
sle@@ 2786
with@@ 2786
EM@@ 2786
records 2785
prisoners 2785
overlooking 2785
ello 2785
A5 2784
ita 2783
bonus 2781
choices 2780
combines 2780
Using 2780
Hol@@ 2779
chan@@ 2779
ert 2779
gue 2777
Resort 2775
prison 2774
willingness 2773
Rotary 2773
1993 2771
cker 2770
speciali@@ 2768
airports 2765
achievement 2765
Cap@@ 2765
faces 2764
boats 2764
bright 2762
conditioned 2762
convergence 2760
environmentally 2760
Would 2759
seconds 2758
teachers 2758
Op@@ 2757
seeks 2756
insist 2756
bes 2756
Cooperation 2756
han@@ 2756
Sam@@ 2756
cel@@ 2754
operator 2754
ere 2753
David 2753
Muslim 2752
hidden 2751
alongside 2751
blocks 2750
participating 2750
percentage 2749
radical 2749
Ter@@ 2749
Sc@@ 2749
soil 2748
preserve 2747
TR@@ 2747
associations 2746
gan@@ 2744
Further 2743
bearing 2742
marine 2742
Mag@@ 2742
Hor@@ 2741
fer 2740
Ha@@ 2739
camp 2739
2nd 2738
observed 2737
Constitutional 2736
Ä@@ 2736
Industry 2735
reporting 2735
Ã¨@@ 2735
unity 2735
ney 2735
aviation 2734
stic 2734
read@@ 2734
yl@@ 2733
ous@@ 2733
Sun@@ 2733
las@@ 2732
repair 2731
promises 2731
quote 2730
Han@@ 2730
stunning 2730
Notes 2729
rating 2727
Deutsche 2727
dance 2727
accidents 2725
exact 2725
aqu@@ 2725
ises 2723
implications 2723
41 2722
Off@@ 2722
custom 2722
mouse 2722
superior 2721
tin 2720
regulated 2720
ye@@ 2720
Civil 2719
Treaties 2718
stabili@@ 2718
quotas 2718
clarify 2717
tered 2717
purely 2716
capabilities 2716
alities 2715
disc@@ 2714
Danish 2713
ries 2712
stake 2712
Exchange 2712
Pro 2711
prize 2710
manual 2710
boards 2709
federal 2708
itable 2707
Manager 2707
harmful 2706
convenience 2706
villa 2706
05 2703
Gre@@ 2702
Award 2702
stories 2701
actors 2701
Forum 2701
JavaScript 2701
dispute 2700
filter 2700
asset 2699
PO@@ 2699
Have 2698
surprised 2698
hopes 2697
theatre 2697
composition 2696
plan@@ 2696
colors 2696
incentives 2695
utmost 2695
governing 2694
SO@@ 2694
20th 2693
conferences 2692
bathrooms 2692
spite 2691
ards 2691
yard 2690
stuff 2690
roof 2689
phones 2689
ned 2687
ells 2687
believed 2687
compulsory 2686
J 2686
convention 2685
pol@@ 2685
250 2685
ond 2684
native 2684
specialized 2684
Life 2683
Based 2683
ils 2682
secondly 2681
ly@@ 2681
Acc@@ 2680
uted 2679
ain 2679
dict@@ 2678
attend 2676
initially 2675
bet 2672
fax 2671
TS 2670
extending 2669
Terms 2669
hole 2668
relationships 2668
SI@@ 2668
mere 2667
Sha@@ 2667
mine 2665
vely 2663
Dublin 2663
ination 2663
wooden 2663
AG@@ 2661
scheduled 2661
expand 2660
ath@@ 2659
comple@@ 2658
checked 2658
26@@ 2658
beer 2657
hills 2656
don@@ 2656
expense 2654
opens 2653
evident 2652
ide@@ 2649
meals 2649
iling 2648
47 2648
Ð·@@ 2648
enforcement 2646
unfair 2646
chairman 2643
approaches 2643
contextual 2643
zero 2641
eliminate 2641
q 2641
Ð° 2641
broken 2638
casino 2638
retain 2637
addressing 2637
Mat@@ 2636
metro 2636
Nor 2635
girls 2634
upgrade 2634
Win@@ 2632
assigned 2630
poorest 2628
prec@@ 2627
mes 2627
classical 2626
permission 2625
ction 2625
ultimate 2624
multilateral 2624
airlines 2623
Fundamental 2622
Jean 2622
hot@@ 2622
enting 2621
communicate 2621
developers 2621
Jewish 2620
schemes 2619
clock 2619
George 2618
sleep 2618
repeated 2617
Cuba 2617
dia 2616
Common 2615
nit@@ 2615
amended 2613
Box 2613
smooth 2612
Ob@@ 2612
run@@ 2611
Trans@@ 2610
revi@@ 2610
Three 2609
Children 2609
permit 2608
minor 2607
concentration 2607
audience 2607
cool 2607
Prodi 2605
exposed 2604
negotiation 2604
organise 2602
ation@@ 2602
dge 2602
accounting 2599
View 2598
shortly 2597
legitimacy 2597
Bro@@ 2597
Lan@@ 2596
indoor 2596
sessions 2595
USS 2595
Via 2594
wave 2593
lab@@ 2593
revolution 2592
pace 2592
remarkable 2591
.00 2591
Smoking 2590
eded 2589
fur@@ 2589
violation 2589
describe 2588
ler@@ 2588
whereby 2587
edited 2587
alists 2586
shi@@ 2586
mixed 2586
medieval 2586
studied 2585
empty 2585
Ð¶@@ 2585
St 2583
ich@@ 2582
istic 2581
bon@@ 2580
medicines 2580
Project 2580
campaigns 2579
pilot 2579
constitutes 2578
ams 2578
sil@@ 2576
log@@ 2576
occupation 2575
ques 2575
Fin@@ 2574
PS 2574
iting 2573
51 2572
tar@@ 2571
ratification 2571
financed 2568
Cup 2568
dem@@ 2567
Set 2567
ÑÑ@@ 2567
seemed 2566
Kyoto 2566
intelligent 2566
Space 2566
Garden 2566
Network 2564
sible 2564
collapse 2563
mini@@ 2563
Fisheries 2562
IC 2562
Employment 2561
cy 2561
exc@@ 2561
wife 2557
hur@@ 2556
by@@ 2556
fi 2556
Java 2556
e.g 2556
win@@ 2555
Des@@ 2554
stick 2553
painting 2553
keys 2553
suggests 2552
ownership 2552
meaningfully 2552
fewer 2550
ingredients 2550
Quality 2550
gran@@ 2549
ites 2549
chapter 2548
04 2547
appointment 2547
discount 2545
clicking 2543
Ð½ 2543
ack 2542
charm 2542
ron 2540
elle 2539
pools 2539
inadequate 2538
bought 2538
posi@@ 2538
Pe@@ 2536
voc@@ 2536
Fu@@ 2535
satisfactory 2535
Ã³n 2534
collabor@@ 2534
adventure 2533
sely 2532
aus 2532
urgency 2531
completion 2531
calm 2530
height 2530
teen 2529
120 2529
Robert 2529
translated 2529
slo@@ 2527
ala 2527
enjoys 2526
ac 2524
maybe 2523
ulation 2521
neighbours 2521
Pol@@ 2520
repeatedly 2520
asi 2520
Meeting 2519
ass 2518
economically 2518
Apart 2516
dig@@ 2516
wers 2516
sees 2516
tom@@ 2515
trained 2514
desirable 2514
LE 2514
considerations 2513
begun 2513
46 2513
vo 2512
dramatic 2511
signing 2511
underlying 2510
secondary 2510
foundations 2510
sem@@ 2510
cli@@ 2509
Slovakia 2507
journalists 2507
frequency 2506
Subject 2506
Authority 2505
tionally 2505
As@@ 2504
contextually 2504
Intergovernmental 2503
grammatically 2503
dence 2502
paths 2502
bay 2502
Hel@@ 2501
technique 2501
Games 2501
ero@@ 2500
moreover 2500
anda 2500
dro@@ 2499
CON@@ 2499
examination 2497
Maria 2496
akes 2495
ish@@ 2495
ll@@ 2495
taxi 2495
Ð¸ 2495
adi@@ 2494
ick 2494
Fri@@ 2493
references 2491
hence 2490
Kong 2490
uting 2489
conciliation 2489
preferred 2488
oring 2488
Ku@@ 2488
navigation 2488
deserves 2487
700 2487
sovereign 2487
Internal 2486
tivity 2485
arti@@ 2485
Player 2485
1991 2483
losing 2482
amb@@ 2482
nation@@ 2481
eds 2481
loading 2480
electrical 2480
72 2480
escape 2479
withdraw 2479
chairs 2479
Hong 2479
vis@@ 2478
expanded 2478
compete 2477
ared 2476
akan 2476
ship@@ 2475
solved 2474
arranged 2474
reali@@ 2473
shuttle 2473
bing 2472
timetable 2471
genuinely 2471
foremost 2471
Tro@@ 2470
enjoying 2470
certified 2469
logic 2468
falling 2468
dual 2468
guaranteeing 2467
52 2467
Sol@@ 2467
soul 2466
San@@ 2466
AT 2466
Florence 2466
observe 2465
Support 2465
partial 2464
leg@@ 2462
managers 2461
sizes 2461
debating 2459
apparent 2459
formation 2459
coastal 2458
refused 2457
Academy 2457
codecision 2456
acted 2455
portal 2455
assi@@ 2453
unnecessary 2452
commit 2452
presidential 2452
vocational 2451
tis 2451
subsequently 2450
buses 2450
informal 2450
A4 2449
intentions 2448
amm@@ 2447
Far@@ 2447
array 2447
Net@@ 2447
representing 2446
thri@@ 2446
loans 2446
SA 2446
dor@@ 2445
thorough 2444
Together 2444
Fer@@ 2444
openness 2443
fascinating 2442
Moscow 2441
q@@ 2441
examined 2440
Van 2440
strike 2439
Chairman 2439
ading 2437
fran@@ 2437
yst@@ 2436
Cro@@ 2436
destroy 2434
cian 2434
newsletter 2433
sorry 2431
ania 2431
elec@@ 2430
zo@@ 2430
Make 2430
splendid 2429
USD 2429
.de 2427
folder 2427
characteristic 2426
residential 2426
1989 2425
but@@ 2425
cro@@ 2425
Tu@@ 2425
diving 2424
yp@@ 2423
thumbnail 2423
boasts 2422
reg@@ 2421
speeches 2421
port@@ 2421
optimal 2421
Morocco 2421
Flash 2421
ization 2421
respects 2420
Pu@@ 2419
Plaza 2419
iron 2418
Ph@@ 2418
Team 2418
S.@@ 2417
Ministry 2416
Wednesday 2415
NL 2415
Speci@@ 2415
moments 2414
Ban@@ 2414
IG@@ 2414
ethical 2413
comparable 2412
tem@@ 2412
Department 2412
cancellation 2412
fix 2411
play@@ 2410
External 2409
Several 2409
Pacific 2409
tual 2409
ening 2408
abilities 2408
branch 2405
Left 2404
pensions 2404
e.@@ 2404
Mas@@ 2404
condemn 2402
fan 2402
ized 2400
Å@@ 2400
broader 2399
importantly 2397
71 2397
expenses 2397
Skype 2397
fifth 2396
simultaneously 2396
autumn 2396
string 2395
tragedy 2395
ok 2395
afford 2394
bigger 2394
rated 2394
viol@@ 2394
violent 2393
viewed 2393
loaded 2393
10.@@ 2393
purchased 2393
AM 2393
spe@@ 2391
tragic 2391
ente 2391
James 2390
spectrum 2389
superb 2388
suited 2388
dialog 2388
principal 2387
jointly 2387
ate@@ 2387
RO 2387
68 2386
layout 2386
Palestinians 2385
Ara@@ 2385
textile 2382
amending 2379
03@@ 2379
Alps 2379
Bosnia 2379
auf 2379
instantly 2378
clarity 2377
transfers 2377
atives 2377
vary 2376
electoral 2376
Section 2375
blu@@ 2375
listening 2374
BO@@ 2374
manufactured 2372
slopes 2372
Medi@@ 2371
ories 2370
mark@@ 2370
turns 2370
jurisdiction 2369
devoted 2368
MySQL 2368
busy 2367
accordingly 2367
ark@@ 2367
ental 2366
sample 2365
booked 2364
adult 2363
composed 2363
residents 2363
Mil@@ 2363
Men@@ 2362
voters 2361
featuring 2360
complaints 2359
accuracy 2358
lively 2358
travellers 2358
flu@@ 2358
ky 2357
terrible 2356
arrangement 2355
oppose 2354
certification 2354
Growth 2354
Greens 2353
lon@@ 2353
Da@@ 2353
ny 2351
revised 2350
behavior 2350
staying 2348
2012 2348
motorway 2348
asi@@ 2347
hei@@ 2347
cement 2346
Airbus 2346
stones 2345
affecting 2344
promoted 2344
servi@@ 2344
Ger@@ 2344
squ@@ 2343
EX@@ 2342
inten@@ 2341
prospect 2341
mechanical 2340
dÃ©@@ 2340
tab@@ 2340
We@@ 2339
alled 2339
BC 2339
va@@ 2337
quar@@ 2336
forgotten 2335
false 2335
fir@@ 2335
measurement 2335
Heads 2334
&apos;d 2334
governmental 2333
ut 2333
hes 2332
finds 2332
ken 2332
stor@@ 2331
Single 2331
sake 2329
authors 2329
afraid 2328
mar 2328
doubts 2327
gate 2327
angle 2327
recall 2326
inspection 2326
fell 2325
ind 2325
virus 2325
ort 2324
orientation 2324
trouble 2324
accessories 2324
publish 2323
Ã©e 2323
Washington 2323
GB 2323
excursions 2323
oth 2322
kes 2322
Product 2322
viable 2321
IR@@ 2321
calendar 2321
Holiday 2321
survey 2320
fol@@ 2320
bel 2319
judge 2318
ther 2318
transaction 2317
Ã­ 2317
coal 2317
actor 2317
destinations 2317
Studio 2317
preserved 2316
plug 2316
bat@@ 2316
NI 2316
66 2315
populations 2315
Up 2315
dat@@ 2315
Ã§@@ 2315
renewed 2314
Apartments 2314
Dan@@ 2313
expressly 2312
lam@@ 2312
ean 2311
tens 2310
1000 2310
refuse 2308
adjustment 2308
Vil@@ 2308
My@@ 2308
gift 2307
Gaza 2307
continuously 2307
parks 2307
rou@@ 2306
sunny 2306
sor@@ 2304
soldiers 2304
posts 2304
buying 2304
removal 2304
stressed 2303
relief 2303
stopped 2302
Otherwise 2302
ances 2301
imm@@ 2301
affordable 2301
focusing 2300
parti@@ 2300
shor@@ 2298
deaths 2297
answered 2297
honest 2297
wheel 2297
Por@@ 2297
Read 2296
deadline 2295
ceiling 2295
focuses 2295
dial 2295
dist@@ 2294
ble@@ 2294
cookies 2294
basically 2293
integrity 2293
whatsoever 2292
lim@@ 2291
doub@@ 2290
ov 2290
Area 2289
Fra@@ 2289
TO@@ 2288
transitional 2287
uncertainty 2287
closing 2287
modify 2287
Main 2287
knew 2286
OT@@ 2285
yn@@ 2285
Plan@@ 2284
nobody 2284
2,@@ 2284
specially 2283
SS 2283
posed 2282
54 2282
cope 2282
assurance 2281
Charles 2281
Suite 2281
Poker 2281
baby 2279
IF@@ 2278
alise 2277
argue 2276
conversion 2275
occupied 2275
dimensions 2274
credible 2273
delays 2271
officially 2271
declare 2270
Finnish 2270
The@@ 2270
ligh@@ 2269
attended 2269
belongs 2269
Partnership 2269
dering 2268
deserve 2268
distinction 2268
observation 2266
installations 2265
Ãº@@ 2265
pain 2264
ÑÐ°@@ 2264
papers 2263
yo@@ 2263
dating 2263
alternatives 2262
emerged 2262
desktop 2262
dated 2261
Dom@@ 2261
alo@@ 2261
territories 2260
wise 2260
Mac 2259
lev@@ 2258
typically 2258
Ge@@ 2258
pressed 2257
granting 2256
ideally 2256
explicitly 2255
Power 2255
surveillance 2255
researchers 2255
GNU 2254
quantity 2252
kno@@ 2251
deficits 2251
Video 2249
tin@@ 2248
a.@@ 2248
noon 2247
duc@@ 2247
ero 2247
Third 2246
architectural 2246
Representative 2245
dal 2245
Mobile 2245
ska 2245
delete 2244
Pra@@ 2244
Society 2243
winner 2243
publishing 2242
greenhouse 2241
healthcare 2240
bug 2239
beef 2239
achievements 2239
civilian 2239
0s 2239
exhibitions 2239
lic 2238
privileged 2238
Co 2238
sailing 2237
ignore 2237
earn 2236
Tom@@ 2236
Bas@@ 2235
visits 2235
undertake 2234
eth@@ 2234
beneficial 2233
dd@@ 2233
86 2232
cab@@ 2231
56 2230
Ò@@ 2230
ruling 2229
IV 2229
Web@@ 2229
throw 2228
bol@@ 2228
Download 2228
tower 2227
spo@@ 2227
stand@@ 2226
dog 2225
recession 2225
arts 2225
variable 2225
pur@@ 2224
zu@@ 2224
mo 2224
centers 2224
missed 2223
duration 2222
brands 2221
Ð³@@ 2221
organize 2221
dar@@ 2220
Democratic 2220
negotiated 2220
lights 2220
sign@@ 2220
smart 2220
ora 2220
TI@@ 2220
ped 2219
pattern 2218
Marina 2218
catalogue 2217
Standard 2217
quest 2216
revealed 2215
precision 2215
mb@@ 2215
whenever 2214
identification 2214
contrac@@ 2214
advise 2213
sho@@ 2212
Youth 2212
ker@@ 2212
preparations 2210
employers 2209
necessity 2209
certainty 2208
PA 2208
Ka@@ 2208
Ren@@ 2207
cameras 2206
Budapest 2205
hab@@ 2205
su 2205
frequent 2204
monuments 2204
Power@@ 2204
precious 2202
newspaper 2201
Del@@ 2201
arrange 2201
West@@ 2201
ici@@ 2200
innovations 2200
freight 2200
schedule 2199
atri@@ 2199
Las 2199
Gentoo 2199
prevented 2198
notably 2198
18th 2198
debated 2197
machinery 2197
53 2197
threatened 2197
indicators 2196
oni 2196
holder 2196
aj@@ 2196
tropical 2196
taxpayers 2195
ratified 2195
ratio 2195
signals 2195
reflection 2194
fare 2194
postal 2194
Thomas 2194
Los 2194
AD 2193
poker 2193
certificate 2192
Presidents 2191
Prize 2191
academic 2191
cr@@ 2190
Investment 2190
Pap@@ 2189
ros 2189
Storage 2189
commerce 2187
Maastricht 2187
automotive 2187
Staff 2186
neighbourhood 2186
retail 2186
logo 2186
Pan@@ 2186
bonds 2184
cancelled 2181
inter 2180
Until 2180
suspended 2180
eine 2180
prestigious 2179
tech 2177
returns 2177
realize 2177
tre 2176
Met@@ 2176
negotiate 2175
consistently 2174
59 2174
justify 2173
claimed 2173
purchasing 2172
92 2172
ups 2171
trains 2171
AV@@ 2170
mi 2170
alike 2169
Location 2169
insufficient 2168
eries 2168
chose 2166
ony 2165
stops 2165
,@@ 2165
eled 2164
rig@@ 2163
flying 2163
chemicals 2163
Fre@@ 2163
steam 2163
2.0 2163
onic 2162
Ã³ 2162
publications 2162
wer 2161
DA 2161
Pres@@ 2161
concerts 2161
telecommunications 2160
CE 2160
fails 2159
ENT 2159
tips 2159
heavily 2158
nationals 2158
premium 2158
ier 2158
Ã±@@ 2157
aluminium 2157
Multi@@ 2157
Joint 2156
admit 2155
mistakes 2155
passion 2155
esc@@ 2155
ton@@ 2155
drives 2155
unusual 2154
protest 2154
Taiwan 2151
humanity 2150
wars 2150
ills 2149
tory 2149
Car 2149
hydro@@ 2148
withdrawal 2148
li 2147
zones 2146
Olympic 2146
Sou@@ 2146
intelligence 2146
Wa@@ 2146
Sil@@ 2146
eding 2145
placing 2145
relaxed 2145
Small 2144
EA 2144
replacement 2144
proc@@ 2143
Place 2143
tw@@ 2142
releases 2141
unknown 2140
interactive 2140
ard@@ 2139
1.5 2139
Southern 2138
allocation 2137
imported 2137
performing 2137
moves 2136
eted 2135
breach 2135
pair 2135
patterns 2135
Zurich 2135
Opera 2135
Series 2135
sandy 2135
ile 2134
Wil@@ 2134
nur@@ 2134
ett@@ 2133
bot@@ 2133
citizenship 2132
harm 2131
AIDS 2131
Lau@@ 2131
Rural 2130
Uni@@ 2130
Cologne 2130
67 2130
bureaucracy 2129
inform@@ 2129
EF@@ 2129
gross 2128
fications 2128
potentially 2128
fitted 2128
Salzburg 2127
indicates 2126
thanking 2126
contractual 2126
ples 2126
logistics 2126
transit 2125
senior 2124
outs 2123
tering 2122
literature 2121
defining 2120
worrying 2119
habit@@ 2119
photographs 2119
Image 2119
IP@@ 2118
judgment 2118
contributing 2117
rever@@ 2117
mul@@ 2117
authorised 2116
farms 2116
intervene 2116
pack@@ 2116
demonstrates 2115
eter 2115
lovers 2114
hel@@ 2114
comprises 2114
ner@@ 2113
supplementary 2113
split 2113
program@@ 2113
conservation 2112
evaluate 2112
Sony 2112
itation 2110
mandatory 2109
Argentina 2109
generous 2108
acquisition 2108
Wei@@ 2108
Gr@@ 2108
tiz@@ 2108
agrees 2107
chief 2107
stayed 2107
ute 2106
SC@@ 2106
sin 2105
Full 2105
dollars 2104
favourite 2104
Personal 2104
movies 2104
timely 2103
indi@@ 2103
slowly 2102
apparently 2102
posted 2102
chat 2102
clothing 2102
Europol 2101
inde@@ 2101
ante 2100
occurs 2100
04@@ 2100
designer 2100
atively 2099
Hostelsclub 2099
plane 2098
ico 2098
imposing 2096
patents 2096
Camp@@ 2096
tery 2096
initiated 2095
Ñ 2095
antly 2093
Yugoslavia 2092
vic@@ 2092
bis@@ 2092
Road 2091
58 2091
aire 2090
Em@@ 2090
hesitate 2090
heated 2090
SE 2090
cer 2089
SD@@ 2089
Lebanon 2088
Mur@@ 2088
inclusive 2088
Digital 2088
sam@@ 2087
feedback 2086
mm@@ 2086
aciÃ³n 2086
smo@@ 2084
Iranian 2083
sat@@ 2082
announce 2082
Conditions 2081
Website 2081
airline 2080
spare 2079
experiencing 2078
fri@@ 2078
Out@@ 2078
coordinate 2077
dent 2077
88 2076
vac@@ 2076
sk 2076
expanding 2075
tened 2074
asser@@ 2074
allo@@ 2074
rap@@ 2072
Similarly 2072
unions 2071
conventions 2071
wages 2071
conf@@ 2071
BSE 2070
tigh@@ 2069
Liberal 2068
qualifications 2068
fs 2068
elderly 2068
Nov@@ 2068
att@@ 2067
Burma 2067
oo@@ 2067
Na@@ 2066
systematic 2065
silver 2065
codes 2064
equity 2064
caught 2063
unanimously 2061
ust 2061
procurement 2061
wherever 2061
radi@@ 2061
Milan 2061
Al 2061
applicant 2060
tt@@ 2060
intense 2060
temp@@ 2059
Science 2059
churches 2059
measuring 2059
pursued 2058
undermine 2058
tonnes 2058
Ñ@@ 2058
competences 2057
Scotland 2057
notified 2057
Lithuania 2056
Slovenia 2056
settled 2055
Port 2055
disputes 2054
breaking 2054
lighting 2054
terrorists 2053
subscribe 2053
copies 2053
disp@@ 2052
plate 2052
blame 2051
respectively 2051
connec@@ 2051
Socialists 2050
tone 2050
unt 2049
Nordic 2049
displays 2049
creativity 2049
creature 2049
transformation 2047
PRO@@ 2047
Hour 2047
drinking 2046
arrest 2046
boxes 2046
Empire 2046
twin 2045
Sel@@ 2045
lig@@ 2044
Lam@@ 2044
Shop 2044
Bureau 2043
gh 2043
Islam 2042
proximity 2041
rational 2041
cancel 2041
archive 2041
Adobe 2040
react 2039
nom@@ 2039
auto@@ 2039
specify 2038
exposure 2038
oned 2037
Cha@@ 2036
converted 2035
downloaded 2035
fallen 2034
tough 2031
cot@@ 2031
gam@@ 2031
eve 2030
rein@@ 2030
Search 2030
structured 2029
cooking 2029
HTML 2029
eting 2028
biological 2028
sentence 2028
ci 2028
spots 2027
57 2027
eth 2027
sheets 2027
worry 2026
progressive 2026
premises 2026
catering 2025
3rd 2025
snow@@ 2024
pursuant 2022
det@@ 2022
dominant 2021
harbour 2021
Malta 2021
Sta@@ 2021
Communist 2020
AC 2018
Res@@ 2017
consistency 2017
handed 2017
eing 2017
bak@@ 2017
magic 2016
Mel@@ 2015
untuk 2015
thy 2014
unemployed 2014
unds 2014
headquarters 2014
contra@@ 2012
Cat@@ 2011
fic@@ 2011
pour 2010
negara 2010
77 2009
Out 2009
Super@@ 2009
intensi@@ 2008
coverage 2008
MA 2008
biodiversity 2007
tension 2007
platforms 2007
progres@@ 2007
Blue 2007
Master 2007
favorite 2007
degrees 2006
essence 2006
convince 2006
handled 2006
san@@ 2006
eless 2005
arbitrary 2005
sy@@ 2005
pic@@ 2005
Poli@@ 2004
controversial 2003
Plus 2003
warming 2002
BR@@ 2002
crops 2001
fulfilled 2000
authentic 2000
Everything 1999
fuels 1999
App@@ 1999
treaties 1998
62 1998
hol@@ 1998
visitor 1998
findings 1997
keeps 1997
stays 1996
Kr@@ 1996
AP@@ 1996
Direc@@ 1995
ji 1995
vor@@ 1995
gaining 1994
lowest 1993
ab 1993
gains 1992
Star@@ 1992
silence 1991
stem 1991
perspectives 1991
cos 1991
Go 1991
hire 1990
ham 1989
editor 1989
College 1988
wind@@ 1987
ras 1987
adjust 1987
icon 1987
rubber 1986
Ã­a 1986
vin@@ 1985
aches 1985
Wor@@ 1985
Water 1984
shaped 1984
ez 1983
warmly 1983
inst@@ 1982
ambition 1982
ums 1982
whi@@ 1982
power@@ 1981
threshold 1980
explains 1980
maps 1980
aring 1979
assured 1979
rela@@ 1979
tra 1979
par 1979
por 1979
les@@ 1978
borne 1977
tribute 1977
reli@@ 1977
Fran@@ 1977
Contact 1977
substantially 1976
eo 1976
accommodate 1975
Travel 1975
male 1974
refer@@ 1974
Select 1974
integral 1973
temperatures 1972
pays 1972
Rot@@ 1972
opt 1971
hospital 1971
need@@ 1970
Which 1970
convert 1970
bureaucratic 1969
yers 1969
partnerships 1969
flag 1969
sur 1969
tz 1968
confident 1968
Obviously 1968
segment 1968
89 1967
Dor@@ 1967
ee 1967
Point 1967
racing 1966
practically 1965
migrants 1965
vari@@ 1965
workshops 1965
ED@@ 1964
incentive 1964
blind 1964
bag 1964
estimate 1963
genetic 1963
fate 1962
Show 1962
birds 1961
ich 1961
describes 1960
160 1960
Choose 1960
forming 1959
Kor@@ 1959
News 1959
raises 1958
sn@@ 1958
OL@@ 1958
Est@@ 1957
tiv@@ 1957
Mis@@ 1957
terminal 1957
ints 1956
specifications 1956
jo 1955
Defence 1955
specialities 1955
suggestion 1954
minim@@ 1953
trans 1953
bill 1952
artificial 1951
capture 1951
emission 1951
fold 1950
s. 1950
lied 1949
paradise 1949
Pl@@ 1948
tun@@ 1947
novel 1947
meantime 1946
hi 1946
receives 1946
Tel@@ 1946
avoided 1945
wake 1945
aming 1945
mas 1945
Canon 1945
emphasised 1944
Guide 1944
collec@@ 1944
Kur@@ 1944
enlarged 1942
fli@@ 1942
Cent@@ 1942
Ham@@ 1942
defense 1942
82 1941
Stockholm 1941
fam@@ 1941
Experience 1941
op 1940
Gold 1940
laser 1939
camp@@ 1939
drafting 1938
choosing 1938
tangible 1937
Palestine 1937
rem@@ 1937
appreciated 1937
workshop 1937
toilet 1937
approx 1937
performances 1936
tured 1936
ases 1936
Access 1936
eller 1936
leather 1936
Wal@@ 1936
League 1935
Cathedral 1935
hear@@ 1934
ential 1934
pack 1934
een 1933
talked 1933
physi@@ 1932
Nonetheless 1931
Cra@@ 1931
AU@@ 1931
ze@@ 1930
Tru@@ 1930
ET 1930
holes 1929
tries 1929
AR 1928
harmony 1928
sw@@ 1928
Puerto 1928
globalization 1928
AN 1927
fe 1927
21st 1926
lesson 1925
regulate 1925
pot 1925
holders 1925
tionary 1925
tel 1925
Live 1925
Ð°Ð»@@ 1925
diver@@ 1924
measured 1924
doctor 1924
ession 1923
semi 1923
Â· 1923
Deposit 1923
thro@@ 1922
Cu@@ 1922
Labour 1922
set@@ 1922
nonetheless 1921
78 1921
controlling 1921
sla@@ 1921
super 1921
column 1921
Citizens 1920
deemed 1920
ests 1920
finances 1920
Gulf 1920
SV 1920
hing 1919
iti@@ 1919
directions 1919
develops 1919
book@@ 1919
Captain 1919
pharmaceutical 1918
belie@@ 1917
isolated 1917
Beijing 1917
93 1916
dam@@ 1916
Pen@@ 1916
avi@@ 1916
poll@@ 1915
Eff@@ 1914
arity 1914
discipline 1913
PC@@ 1913
mag@@ 1913
kar@@ 1913
consequently 1912
aded 1912
isn 1912
73 1911
Sar@@ 1911
teacher 1910
Parliamentary 1910
ung 1910
executed 1909
acknowledged 1909
demographic 1909
noticed 1909
ample 1909
lakes 1909
differ 1908
publicly 1908
fought 1908
Tim@@ 1908
acquire 1907
History 1907
notion 1907
adap@@ 1907
69 1906
lement 1905
preliminary 1904
writer 1904
tia 1904
Spe@@ 1904
sively 1904
aw@@ 1904
MB 1904
thoroughly 1903
exchanges 1903
dom@@ 1903
analy@@ 1903
Golden 1903
plain 1902
undertakings 1902
statistical 1902
watching 1902
justi@@ 1901
unlike 1901
signature 1901
decent 1900
dep@@ 1900
74 1900
edit 1900
fears 1899
victim 1899
alle@@ 1899
Sho@@ 1899
Meanwhile 1898
ignored 1898
uns 1898
CS 1898
Edition 1898
economics 1897
ela 1897
.org 1897
agent 1896
challenging 1896
Iraqi 1895
characterized 1895
prosec@@ 1894
uring 1894
founding 1894
rat@@ 1893
expressing 1892
marking 1892
cheese 1892
Ms 1892
Her 1892
Ã¨re 1891
grand 1890
Norway 1889
aking 1889
63 1889
ong@@ 1889
DC 1889
rin@@ 1889
declarations 1888
mur@@ 1888
Modern 1888
Hamas 1888
Additionally 1887
damaged 1886
derived 1886
ando 1886
skilled 1885
12.@@ 1885
oria 1885
int@@ 1885
allies 1884
dumping 1883
cen@@ 1883
grade 1882
guard 1882
ail 1882
direc@@ 1881
camps 1881
ford 1881
ater 1881
strange 1880
belonging 1880
Order 1880
dos 1880
explo@@ 1879
grand@@ 1879
entries 1879
peri@@ 1878
interinstitutional 1878
confusion 1878
ful@@ 1878
dominated 1878
California 1878
photography 1878
ori 1877
regimes 1877
consult 1876
denti@@ 1876
encies 1875
dependence 1875
unch 1875
surprising 1875
ired 1874
sustained 1874
ishes 1874
hoped 1874
Indonesia 1873
wording 1873
ester 1873
peak 1872
indirect 1872
Right 1872
Libya 1872
activated 1872
disappointed 1871
cop@@ 1871
gel 1871
Tuesday 1870
autonomy 1870
emerge 1870
racism 1870
Organization 1870
Ã¨ 1870
PM 1870
restrict 1869
circle 1869
licence 1869
tain 1869
battery 1869
scenery 1869
Visit 1869
paintings 1869
automation 1868
Apple 1868
Everyone 1866
realized 1866
shortcomings 1865
tailored 1865
reverse 1864
survival 1864
Macedonia 1864
projec@@ 1864
pil@@ 1863
celebrate 1863
vent 1862
sporting 1862
interaction 1861
governed 1861
regi@@ 1861
Open@@ 1861
ier@@ 1861
gel@@ 1861
Vietnam 1861
wat@@ 1860
prohibited 1860
engineers 1860
nis@@ 1859
downtown 1859
ÐµÑ@@ 1859
evi@@ 1858
91 1858
sound@@ 1858
decre@@ 1858
incredible 1857
DO@@ 1857
piano 1857
marquis 1857
unlikely 1856
condemned 1855
Peace 1855
telling 1854
scre@@ 1854
adjusted 1854
alarm 1854
keen 1853
estimates 1853
essed 1853
1980 1853
2.5 1852
tolerance 1852
hed 1850
crystal 1850
ji@@ 1850
tells 1849
spiritual 1849
survive 1848
BMW 1848
rejection 1847
Budgetary 1847
CE@@ 1847
connecting 1847
mes@@ 1847
OM@@ 1847
themes 1846
IB@@ 1846
finest 1846
motions 1845
bread 1845
tac@@ 1845
Sor@@ 1845
guidance 1844
centrali@@ 1844
monitored 1844
flowers 1844
Fac@@ 1843
Cle@@ 1843
ground@@ 1843
Program 1843
Hostel 1843
Part 1842
complexity 1842
stood 1842
rub@@ 1841
LU@@ 1841
regrettable 1840
exceed 1840
enz@@ 1840
prominent 1840
aria 1840
Mont@@ 1840
robust 1839
environments 1839
bird 1838
Gen@@ 1837
Clearly 1837
Elevator 1837
gg@@ 1836
officer 1836
outset 1836
brain 1836
kit 1836
94 1835
turing 1835
Ð¹ 1835
UC@@ 1834
Press 1834
lacking 1833
torture 1833
hosts 1833
branches 1832
breathtaking 1832
pleas@@ 1831
hy@@ 1831
Heating 1831
amend 1829
80@@ 1829
powered 1829
inations 1828
lined 1828
Cy@@ 1828
indication 1827
well@@ 1826
compare 1826
kg 1826
transatlantic 1826
Industrial 1826
81 1825
inquiry 1825
foods 1825
Luggage 1825
micro 1824
Albania 1824
ele 1824
failing 1823
mirror 1823
incorporate 1822
accepting 1822
Wall 1822
mining 1821
alliance 1821
ily 1821
passes 1820
accepts 1820
activ@@ 1820
Hence 1819
infringement 1819
shel@@ 1819
venue 1819
married 1819
taught 1818
kids 1818
thoughts 1817
ography 1817
rÃ©@@ 1817
suff@@ 1816
atten@@ 1816
pione@@ 1816
Gran 1816
Start 1814
abandoned 1813
Declaration 1813
lor@@ 1812
drafted 1812
badly 1812
76 1812
conver@@ 1811
searching 1811
reduces 1811
Mari@@ 1811
automated 1811
bid 1810
mobili@@ 1810
Ã¥@@ 1810
downloading 1810
rose 1809
Sem@@ 1809
shareholders 1808
vil@@ 1808
ened 1808
responses 1808
walks 1808
ail@@ 1808
exceptions 1807
ST 1807
ville 1807
ensured 1806
enemy 1806
cali@@ 1806
evolution 1805
portra@@ 1805
parameter 1805
backed 1804
grants 1804
constitu@@ 1804
assumed 1804
Sudan 1804
penalties 1803
closure 1803
GN@@ 1803
departments 1802
unfortunate 1802
Air@@ 1802
gar 1802
optical 1802
var 1801
61 1801
pursuing 1800
roughly 1800
Den@@ 1800
Thailand 1800
chen 1799
garage 1799
reinforce 1798
Budget 1797
lt 1797
illing 1797
ord 1797
sensor 1797
C5 1796
ey@@ 1795
subsidiary 1794
bone 1794
craft 1793
implies 1793
attract 1793
golden 1793
characterised 1792
returning 1792
tives 1791
checking 1791
upcoming 1791
aching 1790
cket 1790
High@@ 1790
alize 1790
defects 1789
separately 1789
bert 1789
aces 1789
conjunction 1788
fault 1787
inequality 1787
simplify 1787
calculated 1787
delicate 1787
wel@@ 1787
reductions 1787
Ltd 1787
grew 1786
circulation 1786
discovery 1786
interview 1785
Zimbabwe 1785
kon@@ 1785
undertaking 1784
initi@@ 1784
manifest@@ 1784
tial 1784
invitation 1783
black@@ 1783
LA 1783
oh@@ 1783
urs 1782
alu@@ 1782
doctors 1782
crossing 1782
Apartment 1782
requiring 1781
ote 1781
sus@@ 1780
New@@ 1780
observers 1780
izing 1780
quota 1779
Technical 1779
abo@@ 1779
Rom@@ 1778
alt 1778
filling 1778
ry@@ 1778
salt 1777
compar@@ 1777
celebrated 1777
Pat@@ 1777
della 1777
40@@ 1776
seminars 1776
Ol@@ 1776
demo@@ 1775
sing@@ 1775
cip@@ 1775
Je@@ 1775
officers 1774
transformed 1774
homo@@ 1774
defending 1773
tho@@ 1773
eria 1773
dental 1773
PP@@ 1773
stein 1773
denied 1772
score 1772
bles 1772
girl 1772
SU@@ 1772
centrally 1771
shore 1771
simplification 1770
Sometimes 1770
feels 1770
profound 1770
inher@@ 1770
fires 1770
multimedia 1770
unprecedented 1769
intern@@ 1769
Tr@@ 1769
wan@@ 1769
horizontal 1768
bach 1768
minds 1767
SC 1767
FOR 1767
evil 1767
Che@@ 1767
ka@@ 1767
Training 1767
preferences 1766
clothes 1766
editing 1766
tious 1765
modes 1765
Rel@@ 1763
ems 1763
champ@@ 1762
coinci@@ 1760
breaks 1760
securities 1760
Jan@@ 1760
respecting 1759
conve@@ 1759
daughter 1759
Reg@@ 1759
vegetables 1758
29@@ 1758
login 1758
optional 1757
Hei@@ 1757
Bon@@ 1757
ami 1757
Line 1757
net@@ 1757
owing 1756
consolidation 1756
ingen 1756
admi@@ 1755
bases 1755
EEC 1755
inated 1754
alls 1754
participated 1754
roles 1754
translations 1754
deser@@ 1754
Saudi 1754
trails 1754
Ak@@ 1753
dings 1753
Mark 1753
eta 1752
tape 1751
fiable 1751
quot@@ 1751
tot@@ 1751
continental 1751
murder 1751
origin@@ 1751
eff@@ 1751
oting 1750
cheaper 1750
lier 1750
Fle@@ 1750
guides 1750
tening 1749
adher@@ 1749
dre@@ 1749
yellow 1748
radiation 1748
ues 1748
concentrated 1748
adv@@ 1747
ku@@ 1747
diplom@@ 1747
surfing 1747
Don@@ 1747
OK 1746
Gor@@ 1745
reiterate 1745
continuation 1745
fron@@ 1745
NO@@ 1745
C. 1745
Bol@@ 1745
accused 1744
continually 1744
landscapes 1744
stry 1743
Tibet 1743
patri@@ 1743
Above 1743
monthly 1743
ep 1743
Tunisia 1743
oder 1743
Kirk 1743
dges 1742
announcement 1742
hard@@ 1742
mol@@ 1741
practi@@ 1741
archi@@ 1741
adaptation 1740
Currently 1740
recycling 1739
iPhone 1739
secured 1738
loved 1738
S. 1738
interim 1737
quantities 1737
identical 1737
rati@@ 1736
chocolate 1736
B5 1736
day@@ 1736
excess 1736
Add 1736
episode 1736
bathing 1736
arm 1735
separated 1734
Naturally 1734
receipt 1734
V. 1734
quarters 1732
weigh@@ 1732
pact 1732
combining 1732
humans 1732
About 1732
16th 1732
A. 1731
banned 1730
rolling 1730
mod@@ 1730
5th 1730
suddenly 1729
panels 1729
hr@@ 1729
compatibility 1728
ack@@ 1728
enter@@ 1728
enhan@@ 1728
tex@@ 1728
Tyrol 1728
profiles 1728
analyses 1727
sanc@@ 1727
Ñ@@ 1727
investigate 1726
Alpine 1726
solving 1725
arm@@ 1725
brother 1725
earned 1724
cit@@ 1724
lessly 1723
Bad 1723
Discover 1723
backing 1722
enthusiasm 1722
exec@@ 1721
Rob@@ 1721
linguistic 1721
ols 1721
sharp 1721
gol@@ 1721
setup 1721
permanently 1720
colonial 1719
styles 1719
gal@@ 1718
exploring 1718
demanded 1717
unstable 1717
consisting 1717
conveniently 1717
commonly 1717
listened 1716
aux 1716
sers 1716
household 1715
influenced 1714
deli@@ 1713
newspapers 1713
boo@@ 1713
3,@@ 1713
tackling 1712
underline 1712
Sun 1711
struc@@ 1710
demonstration 1710
Millennium 1710
winners 1710
ght@@ 1709
iness 1709
bags 1709
vine 1709
Come 1709
revenues 1708
Danube 1708
tains 1708
deleted 1708
pop 1708
ema 1707
invested 1706
Content 1706
cycling 1706
gon 1705
Friendly 1705
Big 1704
knowing 1702
Pla@@ 1702
inning 1701
announ@@ 1701
arians 1701
Rather 1700
gy@@ 1700
rivers 1700
alogue 1699
ultra 1698
oms 1698
tube 1697
eigh@@ 1696
alive 1696
ool 1696
weekly 1696
Rap@@ 1695
ambitions 1695
specialised 1694
Ã¶@@ 1694
lending 1693
sin@@ 1693
Mad@@ 1693
districts 1692
restoration 1692
unlimited 1692
resorts 1692
Py@@ 1692
culinary 1692
11.@@ 1691
ink@@ 1691
founder 1691
gym 1691
rescue 1690
kill 1690
Anonymous 1689
Professional 1688
circuit 1688
gio 1687
Cho@@ 1687
flash 1686
resistant 1686
XP 1686
Client 1686
partially 1685
HD 1685
EMU 1684
ix 1684
clearer 1683
sement 1683
deleg@@ 1683
vicinity 1683
show@@ 1683
explicit 1682
currencies 1682
refined 1682
illa 1681
87 1680
dangers 1680
mus@@ 1680
deny 1679
competitors 1679
organiz@@ 1679
differently 1678
top@@ 1678
trademarks 1678
ati 1678
distribute 1677
authorisation 1677
haven 1677
discrimin@@ 1677
subscri@@ 1677
Jews 1677
SM@@ 1677
warranty 1677
contributes 1676
ords 1675
rid 1675
optimum 1674
commission 1674
moderate 1674
Work 1674
rage 1674
prev@@ 1673
ea 1673
verse 1673
arrested 1673
ano@@ 1673
Sie 1673
modest 1672
striking 1672
amp 1672
Â© 1672
sten@@ 1671
twelve 1671
Arts 1671
Region 1670
eness 1670
weapon 1670
pending 1669
coalition 1669
backs 1669
short@@ 1669
Å¾@@ 1668
lion 1667
tight 1667
Four 1667
HO@@ 1667
obtaining 1666
prop@@ 1666
a.m. 1666
jum@@ 1666
waves 1666
carrier 1666
Joseph 1666
bears 1665
rank 1665
bility 1665
17th 1665
sweet 1665
aan 1665
rain 1665
railways 1664
motivated 1664
independently 1664
pin 1664
ologically 1664
formula 1664
EU@@ 1664
Bat@@ 1664
tig@@ 1663
sofa 1663
furthermore 1662
ules 1662
mile 1662
WC 1662
Rei@@ 1662
investing 1661
Change 1661
surplus 1661
ign@@ 1661
fifteen 1660
charter 1660
activate 1660
ians 1660
Climate 1660
magnetic 1660
Ki@@ 1660
frag@@ 1659
removing 1658
SAP 1658
investigations 1657
witness 1657
distinguished 1657
seekers 1657
venture 1657
stro@@ 1657
strive 1657
stu@@ 1657
exploit 1656
tages 1656
pan 1655
refugee 1655
presentations 1655
UNESCO 1655
SQL 1655
nowadays 1654
employee 1654
orious 1653
permits 1653
bus@@ 1653
IV@@ 1653
congratulations 1652
fun@@ 1652
labels 1652
UT@@ 1652
fes@@ 1651
scenario 1651
ital 1651
Rem@@ 1651
dorf 1651
Hon@@ 1650
encounter 1650
partition 1650
Val 1650
controller 1649
dged 1649
conscious 1649
ades 1648
abolition 1648
cher@@ 1648
orian 1648
Christ 1648
socio 1647
constraints 1646
argued 1646
Working 1646
lian 1646
transmitted 1646
pru@@ 1646
Stuttgart 1646
struck 1645
accountability 1645
ial 1645
Les 1645
capability 1644
synchron@@ 1644
featured 1644
Mau@@ 1644
Playa 1643
aled 1642
stakeholders 1642
Ther@@ 1642
halt 1642
Chief 1642
homepage 1642
anders 1641
isolation 1640
Rio 1640
Ã¡n 1640
fits 1640
tool@@ 1640
lens 1640
preventive 1639
condi@@ 1639
stag@@ 1639
thin 1639
gathered 1639
lla 1639
nicht 1639
olo@@ 1638
Richard 1638
thi@@ 1637
albeit 1637
Tran@@ 1637
embedded 1637
Fair 1637
hypo@@ 1636
shr@@ 1636
Alexander 1635
Could 1635
sz@@ 1635
appreciation 1634
damaging 1634
cep@@ 1634
Kal@@ 1634
etric 1634
Radio 1634
assessments 1633
revol@@ 1633
ord@@ 1633
younger 1633
fal@@ 1632
auch 1632
notification 1631
QU@@ 1631
capacities 1630
excellence 1630
Ocean 1630
stimulate 1630
TA 1630
Mul@@ 1630
aus@@ 1630
4th 1630
15th 1630
acquis 1629
83 1629
translate 1629
ouring 1628
divide 1628
indigenous 1628
laying 1627
tip 1627
Muslims 1627
observations 1626
hide 1626
affili@@ 1626
Starfleet 1626
recover 1625
ple 1625
CEO 1624
tain@@ 1624
cinema 1624
Top 1624
tz@@ 1624
gence 1623
Holy 1623
width 1623
Caribbean 1621
2015 1621
tile 1621
Ð¹@@ 1621
boundaries 1620
divi@@ 1620
clu@@ 1620
District 1620
irre@@ 1619
minimal 1619
adequately 1619
opponents 1619
cum@@ 1619
laboratory 1619
eating 1619
900 1619
MP3 1619
grave 1618
84 1618
Moldova 1618
bands 1618
Communication 1617
Cross 1617
trademark 1617
ood 1617
.The 1617
unanimous 1616
Tower 1616
sad 1616
scenes 1616
promotes 1615
rows 1615
Cold 1615
kilometers 1615
interpreted 1614
viewing 1614
maxim@@ 1614
counts 1614
liquid 1614
Prin@@ 1614
supervisory 1613
mounted 1613
irs 1613
lifestyle 1613
mal 1612
pride 1611
Jesus 1611
sch 1610
CHF 1610
feelings 1609
nic@@ 1609
plates 1609
Fax 1609
gear 1608
touched 1607
evol@@ 1607
HIV 1607
oper@@ 1606
mailing 1606
shoes 1606
Fa@@ 1606
dictatorship 1605
washing 1605
ali 1605
terror 1604
besides 1604
countless 1604
extends 1604
bath@@ 1604
Spring 1604
ik 1604
inevitable 1603
gement 1603
influ@@ 1603
Natural 1603
clean@@ 1603
databases 1603
consulted 1602
Ed@@ 1602
ices 1601
max 1601
hat 1600
vessel 1600
care@@ 1600
Hans 1600
recep@@ 1599
wn@@ 1599
coherence 1598
conviction 1598
Bru@@ 1598
alling 1597
domin@@ 1597
inspiration 1597
retirement 1597
mers 1597
EP 1597
gaming 1597
Ñ@@ 1597
symp@@ 1596
Det@@ 1596
han 1595
musicians 1595
Ari@@ 1595
ergy 1594
promising 1594
appe@@ 1594
ater@@ 1594
genetically 1594
invo@@ 1594
stringent 1593
neutral 1593
separation 1593
Fil@@ 1593
desc@@ 1592
designers 1592
Sol 1592
delayed 1591
speaks 1591
UL@@ 1591
attempted 1590
safely 1590
capitalism 1590
Eu@@ 1590
ambience 1590
authorized 1590
Professor 1589
qualities 1589
reconciliation 1588
advis@@ 1588
dimin@@ 1588
clarification 1588
Man 1588
Process 1588
Library 1588
spi@@ 1587
Cer@@ 1587
Aqu@@ 1587
dru@@ 1587
prot@@ 1587
SS@@ 1587
PSE 1586
Jerusalem 1586
Sy@@ 1586
Gallery 1586
ruled 1585
sus 1585
killing 1585
Bridge 1585
justification 1584
afterwards 1584
eligible 1584
lob@@ 1584
oll@@ 1584
gon@@ 1584
instability 1582
separ@@ 1582
Estonia 1582
sightseeing 1582
fire@@ 1581
ocean 1581
awards 1581
perf@@ 1581
reaches 1581
acceler@@ 1581
Mus@@ 1581
oes 1581
ticul@@ 1580
1990s 1580
climbing 1580
configure 1580
vineyards 1580
subscription 1580
symbolic 1579
forums 1579
tensions 1578
glu@@ 1578
dive 1578
decentrali@@ 1577
stating 1577
Liber@@ 1577
palace 1577
inger 1577
Adriatic 1576
dogs 1576
colon@@ 1576
far@@ 1575
Excellent 1575
Vista 1575
deeper 1574
finishing 1574
advocate 1574
tiny 1574
fundamentally 1573
blocked 1573
designated 1573
illi@@ 1573
A.@@ 1573
socially 1572
arri@@ 1572
avoiding 1572
marriage 1572
Suites 1572
endless 1571
ually 1571
comforts 1571
insu@@ 1570
wis@@ 1570
mid@@ 1570
theast 1570
neo 1569
entities 1569
electronics 1569
Unlike 1568
installing 1568
utility 1568
summary 1567
ME 1567
civili@@ 1566
cooling 1566
ideological 1565
wel 1565
joy 1565
dreams 1565
collections 1565
sincerely 1564
existed 1564
talent 1564
Nature 1564
ray 1564
Products 1564
advances 1563
hectares 1563
render 1563
mon 1563
infl@@ 1562
Class 1562
infrastructures 1561
entity 1561
conditional 1561
explanations 1560
lawyers 1560
indispensable 1560
Cab@@ 1560
beat 1560
suspension 1560
elev@@ 1560
elite 1560
Residence 1560
unt@@ 1560
camping 1560
Å 1559
Regarding 1558
reinforced 1558
Pet@@ 1558
troub@@ 1557
delivering 1557
Supervisory 1557
Tar@@ 1557
ids 1556
umb@@ 1555
realised 1555
reproduction 1555
villas 1555
dest 1554
voices 1554
limitations 1554
Over@@ 1554
Heritage 1554
tournament 1554
Ã¢@@ 1553
races 1553
PAR@@ 1553
incomes 1552
Finance 1552
yl 1552
Close 1552
woods 1552
Piazza 1552
Between 1551
geo@@ 1551
Country 1549
endor@@ 1549
intergovernmental 1549
NEW 1549
scra@@ 1548
oked 1548
ric 1547
gged 1547
toler@@ 1547
plac@@ 1547
mines 1547
Gui@@ 1547
universe 1547
Il 1547
bian 1546
painted 1546
globally 1545
ailed 1545
Sport 1545
Anti@@ 1545
Ram@@ 1545
wire 1545
Nero 1545
Though 1544
moder@@ 1544
fing 1544
79 1544
cus 1543
regul@@ 1543
cans 1543
Christians 1543
sau@@ 1543
threatening 1542
hunger 1542
complement 1541
worker 1541
Nigeria 1541
Test 1541
Army 1541
Casa 1540
scep@@ 1539
fruits 1539
asks 1539
duction 1539
workforce 1539
Rental 1539
generating 1538
ft@@ 1538
Louis 1538
highway 1538
dari 1538
inevitably 1537
incident 1537
Neu@@ 1537
enters 1537
het 1537
hof 1537
reads 1536
ual 1536
gging 1536
cements 1536
objec@@ 1536
kin@@ 1536
Simply 1535
Warcraft 1535
Annual 1534
processor 1534
engagement 1534
plugin 1534
esta 1533
openly 1532
eable 1532
shock 1532
complic@@ 1532
Bed 1532
Sen@@ 1531
impetus 1529
integrating 1529
glo@@ 1529
Korean 1528
boarding 1528
tan 1528
Double 1528
Allah 1528
grass 1527
judges 1527
outlined 1527
calculation 1527
admission 1527
master@@ 1527
tn@@ 1527
cargo 1526
attempting 1526
dans 1526
Sig@@ 1526
distant 1525
eur 1525
bits 1525
Language 1525
systematically 1524
itali@@ 1524
wedding 1524
med@@ 1523
seaside 1523
proliferation 1522
somewhere 1522
supporters 1522
hau@@ 1522
Later 1522
Head 1522
Ag@@ 1522
abuses 1521
wra@@ 1521
rupt 1520
asp@@ 1520
teach 1520
acci@@ 1520
feder@@ 1519
Reserve 1519
harmon@@ 1518
carries 1518
seminar 1518
gradual 1517
reviewed 1517
pull 1517
donors 1517
asses 1517
Ã£o 1517
audit 1516
defeat 1516
fabric 1515
60@@ 1515
stroll 1515
ghter 1514
hazardous 1514
fertili@@ 1514
Saddam 1514
interference 1513
subjected 1513
William 1513
annually 1512
simplified 1512
Allow 1512
Coast 1512
refurbished 1512
trail 1511
consist 1511
Singapore 1511
cc@@ 1511
hosting 1511
din 1511
BA 1511
arriving 1510
Corporate 1510
skill 1510
titles 1510
100@@ 1510
implic@@ 1509
deep@@ 1509
graphical 1509
profitable 1508
gases 1508
await 1507
deci@@ 1507
Ke@@ 1506
herself 1506
ald 1506
alpine 1506
filters 1506
adverse 1505
alising 1505
invites 1505
Bag@@ 1505
Roman@@ 1504
menus 1504
vali@@ 1503
tless 1502
entrepreneurs 1502
Being 1502
extrac@@ 1502
ouse 1502
legendary 1502
pointing 1501
tremendous 1501
hopefully 1501
locally 1501
dust 1501
Str@@ 1501
mp 1500
Doha 1500
linking 1499
sensitivity 1499
boy 1499
ilt 1498
packed 1498
Cultural 1497
Cl@@ 1497
Indi@@ 1497
complimentary 1497
horses 1497
zy@@ 1497
offset 1496
Much 1496
detection 1496
Chechnya 1496
GPS 1496
Ð°Ð½@@ 1496
Chile 1495
Pic@@ 1495
Partner 1495
discretion 1494
mand@@ 1494
esses 1494
Ã¨s 1494
Lat@@ 1494
spell 1494
prevents 1492
omed 1492
lying 1492
belt 1492
nar@@ 1492
luck 1492
Mail 1492
cla@@ 1491
Dep@@ 1490
repression 1490
wei@@ 1490
luggage 1490
Ei@@ 1489
delivers 1489
rarely 1489
ais 1489
eil 1489
Ay@@ 1489
contest 1489
elli 1488
pas 1488
glob@@ 1488
supplement 1488
Ã­n 1488
pine 1488
IM 1487
Kra@@ 1487
ranges 1487
kan@@ 1487
vacuum 1486
tab 1486
simul@@ 1486
maintains 1486
opera 1486
bo 1486
dei 1486
fulness 1485
disagree 1485
reasonably 1485
thirty 1485
libraries 1485
Lim@@ 1485
Easy 1485
notic@@ 1484
ept 1484
vi 1484
giant 1484
chi 1484
elegance 1484
character@@ 1483
interfaces 1483
ects 1483
adjustments 1483
lica 1483
interventions 1482
criterion 1482
rigorous 1482
indirectly 1482
Ur@@ 1482
gather 1482
mixture 1482
encomp@@ 1482
communist 1482
perpet@@ 1481
breeding 1481
critique 1481
decrease 1480
Young 1480
bloo@@ 1480
Green@@ 1480
Ven@@ 1480
psych@@ 1480
sco@@ 1479
Mountain 1479
attraction 1479
Village 1479
imperative 1478
Criminal 1478
ull 1478
Land@@ 1478
criminals 1478
mineral 1478
alty 1478
Mah@@ 1478
ÐºÐ¾@@ 1478
arises 1477
fic 1477
adverti@@ 1477
hearts 1476
insight 1476
printer 1476
civilians 1475
tos 1475
query 1475
chances 1474
Ð°Ñ@@ 1474
ails 1473
determining 1473
reveal 1473
ario 1473
ling@@ 1473
Dresden 1472
personality 1471
autonomous 1471
alle 1471
Privacy 1471
tness 1470
advised 1470
circum@@ 1470
tually 1470
democracies 1470
revolutionary 1470
tage 1470
lan 1470
impro@@ 1469
shing 1469
technically 1469
strikes 1469
Ky@@ 1469
symbols 1469
affir@@ 1468
utions 1468
din@@ 1468
mass@@ 1468
exclude 1467
Post@@ 1467
cycles 1466
var@@ 1466
Helsinki 1465
aggressive 1465
gent 1465
practic@@ 1464
group@@ 1464
Max 1464
corporations 1463
austerity 1463
resumed 1462
examining 1462
Romanian 1462
selecting 1462
ection 1462
deck 1462
abstained 1461
isi@@ 1461
incorrect 1460
fat 1460
wishing 1460
chamber 1460
lows 1460
envisaged 1459
Pack 1459
Ò@@ 1459
Bir@@ 1458
resolving 1458
Basel 1458
Statute 1458
maker 1458
ume 1458
Wireless 1458
termin@@ 1457
Ã@@ 1457
Riviera 1457
pt 1456
silent 1456
tal@@ 1456
GP 1456
restrictive 1455
Chancellor 1455
rob@@ 1455
hip 1455
tro 1455
aboard 1455
decoration 1455
appearing 1454
num@@ 1454
Administration 1454
shooting 1454
ua 1454
eling 1454
Film 1454
quali@@ 1453
xed 1453
harmonised 1452
origins 1452
ski@@ 1452
meter 1452
Sim@@ 1451
Flo@@ 1451
monopoly 1450
new@@ 1450
lay@@ 1449
Ãª@@ 1449
theoretical 1448
tran@@ 1447
enhancing 1447
protests 1447
Sierra 1447
healing 1447
kit@@ 1447
excuse 1446
formally 1446
Unless 1446
distinct 1446
Corporation 1446
perception 1446
procedural 1445
Dru@@ 1445
Cir@@ 1445
yield 1444
eco 1444
pillars 1443
tracking 1443
stit@@ 1443
bicycle 1443
convincing 1442
Â£ 1442
solo 1441
ESS 1441
Cli@@ 1441
ope 1440
tons 1440
aro@@ 1440
D. 1440
scrutiny 1439
Provi@@ 1439
divisions 1439
ATION 1439
exceptionally 1438
License 1438
NOT 1437
bi 1437
distributors 1437
stimulus 1437
limitation 1436
overnight 1436
booth 1436
disastrous 1435
perceived 1435
respon@@ 1435
Latvia 1435
Inc 1435
nya 1435
thereof 1434
ura 1434
nutri@@ 1434
Samsung 1434
innocent 1433
margin 1433
refusal 1433
validity 1432
complaint 1432
publi@@ 1432
disciplinary 1432
retri@@ 1432
Net 1432
Mark@@ 1432
carriers 1432
iler 1432
CD@@ 1432
DS 1432
ret@@ 1431
foster 1431
Lag@@ 1431
compromises 1430
Edinburgh 1430
guitar 1430
emphasi@@ 1429
layers 1429
matches 1429
ageing 1429
break@@ 1429
cin@@ 1429
Mountains 1429
sums 1428
IX 1428
Rhine 1428
stan@@ 1428
unter 1428
broad@@ 1427
clinical 1426
pho@@ 1426
singer 1426
abandon 1425
globe 1425
ceremony 1425
tioned 1424
statute 1424
overwhelming 1424
1970 1424
gres@@ 1424
Bio@@ 1424
vel 1424
Ober@@ 1423
ancy 1423
reader 1423
Solidarity 1423
surgery 1423
Catholic 1422
moon 1422
Child 1422
Hom@@ 1422
newest 1422
dt 1422
compens@@ 1421
ruption 1421
EX 1421
stell@@ 1421
einer 1421
Ð½Ð¾@@ 1421
IGC 1420
sincere 1420
securing 1420
protective 1420
Kon@@ 1420
Nikon 1420
shots 1419
rice 1419
carte 1419
Explorer 1419
Ñ 1419
preservation 1418
prints 1418
terraces 1418
sich 1418
attach 1417
Post 1417
Ñ@@ 1417
emotional 1416
dress 1416
yo 1416
GA 1416
enjoyable 1416
hyper@@ 1416
adi 1415
Game 1415
productions 1415
lays 1414
headed 1414
sty@@ 1414
1980s 1414
rear 1414
safeguarding 1413
oli@@ 1413
Fal@@ 1413
coins 1413
reactions 1411
erial 1411
workplace 1411
ede 1411
unanimity 1411
high@@ 1411
penet@@ 1410
sav@@ 1410
analyse 1409
ective 1409
bla@@ 1409
depic@@ 1409
credits 1408
tariff 1408
DS@@ 1408
EP@@ 1408
Cur@@ 1408
thinks 1407
limiting 1407
visas 1407
mented 1407
behold 1407
customized 1407
dengan 1407
wisdom 1406
rounds 1406
Especially 1406
Petitions 1406
LCD 1406
Capital 1405
KDE 1405
paint 1404
immense 1404
rup@@ 1404
transpor@@ 1404
asting 1404
partic@@ 1404
ue 1404
cross@@ 1403
admitted 1403
bal 1403
poin@@ 1402
cotton 1402
CA 1402
samples 1402
tram 1402
transported 1401
congratulating 1401
1988 1401
On@@ 1401
inci@@ 1400
pushed 1400
consolidated 1400
formerly 1400
lei@@ 1400
ÐµÐ½@@ 1400
loo@@ 1399
worried 1399
uter 1399
Nobel 1399
bre 1399
XML 1399
preference 1398
multip@@ 1398
classi@@ 1398
Ul@@ 1398
Syn@@ 1398
Vel@@ 1398
NE@@ 1398
anism 1397
Â§ 1397
Wellness 1397
Light 1396
assessed 1395
bin 1395
loan 1395
Ukrainian 1395
Ori@@ 1395
proves 1394
alter 1394
Organ@@ 1394
350 1394
licensed 1394
deployment 1393
vable 1393
Anti 1393
council 1393
zo 1393
Ñ 1393
hairdryer 1393
differenti@@ 1392
Whilst 1392
exploited 1392
literally 1392
pit@@ 1392
ein@@ 1392
beautifully 1392
towels 1392
anger 1391
onian 1391
List 1391
Continu@@ 1391
PE 1391
Å@@ 1391
hop@@ 1390
DR@@ 1390
endorsed 1389
predic@@ 1389
lou@@ 1389
portion 1389
dered 1389
Times 1389
Theatre 1389
concludes 1388
certificates 1387
tag 1387
nearest 1387
invoice 1387
Revolution 1387
Conc@@ 1387
hunting 1386
Written 1386
Look 1386
Zi@@ 1386
aving 1385
beside 1385
dramatically 1385
Land 1384
grid 1383
Oc@@ 1383
nam@@ 1382
costly 1382
mad 1382
consultations 1382
SY@@ 1382
demonstrations 1382
jet 1382
safer 1381
accompanying 1381
facilit@@ 1381
Upon 1381
immunity 1380
Bulgarian 1380
sand@@ 1380
02@@ 1379
buyer 1379
ferry 1379
ei 1379
CDs 1379
pedestrian 1379
endeavour 1378
landing 1378
stering 1378
reb@@ 1378
gical 1378
Innovation 1378
heim 1378
insul@@ 1377
OECD 1377
Congo 1377
couples 1377
Ã¤@@ 1377
Neither 1376
fed 1376
cost@@ 1376
ax@@ 1376
Pr@@ 1376
energies 1375
sympathy 1375
profession 1375
sleeping 1375
Siemens 1375
absurd 1374
jk 1374
Building 1374
cease 1373
shell 1373
Newspapers 1373
upload 1373
wished 1372
punishment 1372
ops 1372
kat@@ 1372
SP 1372
altitude 1372
unified 1371
Force 1371
author@@ 1371
Dam@@ 1370
Galileo 1370
documented 1370
Leipzig 1370
detention 1369
iss@@ 1369
dres@@ 1369
static 1369
emphasize 1369
ao 1368
Dol@@ 1368
Arti@@ 1368
keyboard 1368
vor 1368
tioning 1367
essing 1367
counting 1367
Chan@@ 1367
auto 1367
aiming 1367
Colombia 1367
lah 1367
Ñ 1367
deciding 1366
paragraphs 1366
responding 1366
accommodations 1366
obstacle 1365
ideology 1365
sett@@ 1365
broadcast 1365
comfortably 1365
cattle 1365
Das 1365
ph 1364
classified 1364
patch 1364
confirms 1363
avec 1363
ners 1363
verify 1363
stru@@ 1363
irrespective 1363
ROM 1363
prin@@ 1363
tonight 1362
Disabled 1362
pap@@ 1362
Nokia 1362
kin 1362
bis 1362
ados 1362
drew 1361
ref@@ 1361
omm@@ 1361
burning 1361
PD@@ 1361
classification 1360
thwest 1360
Again 1360
cular 1360
folk 1360
eption 1360
popularity 1360
PH@@ 1360
Quark 1360
pedi@@ 1359
memories 1359
identifying 1359
journ@@ 1359
Stra@@ 1359
smoke 1359
som@@ 1359
vertical 1358
calcul@@ 1358
anc@@ 1358
visu@@ 1358
consolidate 1357
Reform 1357
Nothing 1356
wanting 1356
problematic 1356
DP 1356
settle 1356
legacy 1356
Ant@@ 1356
0.00 1356
mount 1355
Engineering 1355
exam@@ 1354
Bis@@ 1354
instant 1354
Med@@ 1354
studying 1353
guilty 1353
prompt 1353
galleries 1353
cathedral 1353
rot@@ 1352
fasc@@ 1352
pricing 1352
pay@@ 1352
human@@ 1351
outer 1351
Michel 1351
insert 1351
emer@@ 1351
coach 1351
check@@ 1351
Summer 1351
remedy 1350
ements 1350
otel 1350
rs 1349
praise 1349
tendency 1349
delegations 1349
gia 1349
serial 1349
500@@ 1349
cour@@ 1348
trials 1348
Bus 1348
AK@@ 1348
formul@@ 1347
og@@ 1347
Under@@ 1347
Mallorca 1347
donor 1346
construct 1346
Valencia 1346
FI 1346
deadlines 1345
witnessed 1345
meaningful 1345
admire 1345
Against 1345
audiovisual 1345
medicinal 1345
od 1345
modification 1344
Nu@@ 1344
Blair 1344
readers 1344
festivals 1344
Firefox 1344
remin@@ 1343
Long 1343
sional 1343
distinguish 1343
vent@@ 1343
edly 1342
asts 1342
cat 1342
Round 1342
households 1342
Dri@@ 1342
Along 1342
gla@@ 1342
decor@@ 1342
regre@@ 1341
exacerb@@ 1341
unilateral 1341
swi@@ 1341
configured 1341
posing 1340
barrier 1340
astic 1340
mess@@ 1340
gor@@ 1340
Depending 1340
renewal 1339
intim@@ 1339
psychological 1339
insur@@ 1339
jec@@ 1339
sequence 1339
Sav@@ 1338
lum@@ 1338
smallest 1338
commodity 1338
photo@@ 1338
Age 1338
furnishings 1338
counted 1337
Anyone 1337
io 1337
class@@ 1337
scar@@ 1337
reaffir@@ 1337
variables 1337
there@@ 1337
real@@ 1337
invasion 1337
intimate 1337
lifts 1337
cache 1337
modernisation 1336
educ@@ 1336
conce@@ 1336
Germans 1336
fers 1336
opp@@ 1336
nec@@ 1336
180 1335
indications 1335
Zealand 1335
law@@ 1335
baths 1335
thesis 1334
improves 1334
artic@@ 1334
sei@@ 1334
intent 1334
pushing 1334
HU 1334
clim@@ 1333
spreading 1333
Algeria 1333
macro 1333
Not@@ 1333
Gay 1333
Mich@@ 1332
fastest 1332
rum 1332
Bot@@ 1332
Pin@@ 1332
haus 1332
Cohesion 1331
broadly 1331
complementary 1331
inviting 1331
.net 1331
Equ@@ 1330
tied 1330
Mol@@ 1330
acid 1330
zia 1330
buttons 1330
traditionally 1329
painful 1329
visibility 1329
Sac@@ 1329
110 1328
clauses 1328
Ã´@@ 1328
disappear 1328
Montenegro 1328
correction 1328
crus@@ 1327
aks 1327
illness 1327
ruins 1327
completing 1327
anyway 1326
main@@ 1326
execute 1326
Tuscany 1326
All@@ 1326
Looking 1325
lity 1325
enemies 1325
lifting 1325
ium 1325
persu@@ 1324
definitions 1324
End 1324
introduces 1324
tank 1324
EV@@ 1324
sons 1323
vibrant 1323
container 1323
organ 1323
enza 1323
Ð¾ 1323
blocking 1322
escal@@ 1322
RSS 1322
Recently 1321
sends 1321
surfaces 1321
broadcasting 1321
uty 1321
Exhibition 1321
VI 1320
coating 1320
eive 1319
inland 1319
ordering 1319
selec@@ 1319
CR@@ 1319
exquisite 1319
SI 1319
CC 1319
stically 1318
dairy 1318
PER@@ 1318
six@@ 1317
modifications 1317
mut@@ 1317
VIP 1317
Decision 1316
apped 1316
turn@@ 1316
earthquake 1316
Clinton 1316
fragile 1316
night@@ 1316
Fon@@ 1316
disabilities 1315
dish 1315
Sin@@ 1314
organs 1314
dioxide 1314
resp@@ 1314
pel@@ 1314
kel@@ 1314
metro@@ 1314
enforce 1313
encing 1313
Mart@@ 1313
matic 1313
advisory 1313
dity 1312
contem@@ 1312
distinctive 1312
attacked 1311
textiles 1311
temporarily 1311
polis 1311
Forest 1310
mood 1310
cream 1310
coding 1310
Ä 1310
reimbur@@ 1309
lad@@ 1309
draws 1309
nov@@ 1309
6th 1309
Islam@@ 1309
EM 1309
dryer 1309
ik@@ 1308
lit 1308
worlds 1308
recru@@ 1307
conservative 1307
commands 1307
sorts 1306
fulfilling 1306
Freedom 1306
gathering 1305
clas@@ 1305
conducting 1305
feasible 1304
stly 1304
Whatever 1304
persi@@ 1304
xi@@ 1304
vers@@ 1304
Oper@@ 1304
accessed 1304
baggage 1304
Palma 1304
rel 1303
ux 1303
incidents 1303
debts 1303
werden 1303
Ã®@@ 1303
7th 1303
Airlines 1303
favor 1303
imbalances 1302
protects 1302
forestry 1302
evaluated 1302
Political 1302
tut@@ 1302
Francisco 1302
blan@@ 1302
chip 1302
Ð¼ 1302
Objective 1301
democratically 1301
continuity 1301
Democracy 1301
cians 1301
fossil 1300
hil@@ 1300
developer 1300
settlements 1299
a.m 1299
listing 1299
toxic 1299
was@@ 1299
legislat@@ 1298
diet 1298
convic@@ 1298
Medical 1298
Cin@@ 1298
orial 1297
pipeline 1297
cooperative 1297
retained 1296
devi@@ 1296
retro@@ 1296
Annex 1296
11@@ 1296
ern 1295
adjacent 1295
boom 1295
safeguards 1295
inary 1295
anim@@ 1295
volumes 1295
macroeconomic 1295
fusion 1295
exotic 1295
Wikitravel 1295
assessing 1294
AF@@ 1294
wasn 1294
Thai 1294
writers 1293
mot@@ 1292
Bet@@ 1292
brea@@ 1292
Division 1292
downloads 1292
prerequisite 1291
tle 1291
Supp@@ 1291
13th 1291
ears 1290
hen@@ 1290
diplomacy 1290
pa 1290
Tour@@ 1290
encourages 1289
Mir@@ 1289
entary 1289
activists 1289
kes@@ 1289
warrant 1289
Relations 1289
Porto 1289
Marco 1289
nightlife 1289
sibility 1288
passport 1288
HP 1288
attitudes 1287
erg@@ 1287
Voyager 1287
iPod 1287
tunnel 1286
p.m 1286
multinational 1286
rhetoric 1286
Account 1286
grams 1286
spra@@ 1286
By@@ 1286
Marketing 1286
shorter 1285
1986 1285
economical 1285
confidentiality 1285
suits 1285
Warsaw 1285
ANY 1285
aston@@ 1284
preserving 1284
eck 1284
vals 1284
economists 1284
pressures 1284
fut@@ 1284
AP 1284
ratify 1283
OLAF 1283
Environmental 1283
etc. 1283
Arabia 1283
Mount 1283
snacks 1283
mountain@@ 1282
transform 1282
captured 1282
pig@@ 1282
cabin 1282
Deep 1282
routine 1281
noble 1281
diversi@@ 1281
seed 1281
ont 1281
panorama 1281
tible 1280
seas 1280
gur@@ 1280
Arch@@ 1280
Solutions 1280
Users 1280
stal@@ 1280
responded 1279
weakness 1279
coastline 1279
Large 1279
valued 1279
Vit@@ 1279
Croatian 1278
subjec@@ 1278
zy 1278
scripts 1278
jazz 1278
Terrace 1278
lage 1277
organising 1277
Ir@@ 1277
brilliant 1277
Nazi 1277
goo@@ 1277
Additional 1276
purchases 1276
Canadian 1275
130 1275
warran@@ 1275
detect 1275
ciÃ³n 1275
M. 1275
outermost 1274
cky 1274
Pur@@ 1274
stence 1274
pper 1274
Railway 1274
TE 1274
Metro 1274
quoted 1273
harder 1273
Bl@@ 1273
ace@@ 1273
floods 1272
frames 1272
premi@@ 1272
Der 1272
mild 1271
rolled 1271
recognises 1271
bac@@ 1271
Arena 1271
verb@@ 1270
Wol@@ 1270
brutal 1270
Mes@@ 1270
tv 1270
anticipated 1269
transnational 1269
nat@@ 1269
Contrac@@ 1269
SK 1269
compet@@ 1268
Haiti 1268
Canary 1268
Ear@@ 1268
Deb@@ 1268
TNG 1268
aders 1267
dian 1267
mac@@ 1267
bugs 1267
confidential 1266
chart 1266
Fortunately 1266
tica 1266
Slovak 1266
Dolomites 1266
taining 1265
compiled 1265
defines 1265
encountered 1265
dur@@ 1264
Rock 1264
Ð°Ñ@@ 1264
ingu@@ 1263
timing 1263
Ret@@ 1263
organisms 1263
advan@@ 1263
tidak 1263
definite 1262
privileges 1262
ented 1262
concep@@ 1262
slide 1262
Dr 1262
Hou@@ 1262
URL 1262
understandable 1261
saf@@ 1261
inappropriate 1261
pass@@ 1261
pretext 1260
loud 1260
architect 1260
ssi@@ 1260
relie@@ 1260
metals 1260
tie 1260
Gri@@ 1260
Dar@@ 1260
marble 1260
Call 1260
educated 1259
resol@@ 1259
diesel 1259
electro@@ 1259
aya 1259
Pack@@ 1259
eti@@ 1258
W. 1258
employ 1257
initiate 1257
grey 1257
pursuit 1257
genocide 1257
wer@@ 1257
eliminating 1256
fitting 1256
p.@@ 1256
bottle 1256
gambling 1256
thick 1255
Solana 1255
tender 1255
experiments 1255
directors 1255
Dem@@ 1255
past@@ 1255
accommod@@ 1254
cle 1254
diagnosis 1254
Hague 1253
qualification 1253
bikes 1253
eda 1253
autom@@ 1253
tasty 1253
dom 1252
locked 1252
ALE 1252
zzo 1252
10th 1252
Fed 1252
dropped 1251
inspections 1251
launching 1251
Kir@@ 1251
ag 1251
Still 1250
midst 1250
Herzegovina 1250
plot 1250
ax 1250
antique 1250
Articles 1249
Likewise 1249
14th 1249
liquidity 1249
birthday 1249
persecution 1248
evenings 1248
1987 1248
etry 1248
Ticket 1248
oasis 1248
algorith@@ 1248
File 1248
nutrition 1247
pris@@ 1247
ranks 1247
closest 1247
fair@@ 1247
parent 1246
1945 1246
enced 1246
peripheral 1245
Plat@@ 1245
Comple@@ 1245
spot@@ 1244
Local 1244
Kurdish 1244
serv@@ 1244
courtyard 1244
ento 1244
shes 1243
relevance 1243
ckets 1243
tism 1243
vian 1243
boys 1243
ected 1243
tailor 1242
virtu@@ 1242
grat@@ 1242
batteries 1242
spam 1242
SH@@ 1242
optimized 1242
nbsp 1242
aul@@ 1241
municipality 1241
Athens 1241
IBM 1241
stresses 1240
chers 1240
aboli@@ 1240
vig@@ 1240
materi@@ 1239
lical 1239
statutory 1239
ks@@ 1239
voltage 1239
emergence 1238
hist@@ 1238
foodstuffs 1238
varying 1238
escap@@ 1238
eme@@ 1238
sheep 1238
nets 1238
cool@@ 1238
institute 1237
successes 1237
flower 1237
deliberately 1237
Es 1237
1985 1237
remo@@ 1237
gra 1237
ÐµÐ»@@ 1237
recur@@ 1236
lap@@ 1236
rus@@ 1236
persuade 1236
long@@ 1235
conscience 1235
viruses 1235
Sax@@ 1235
merchan@@ 1235
quet 1235
withdrawn 1234
quantitative 1234
Future 1234
wheels 1234
automobile 1234
imagination 1234
Micro@@ 1234
Back@@ 1234
ino@@ 1234
fest 1233
thor@@ 1233
logy 1233
nia 1233
Bus@@ 1233
mption 1233
Hitler 1233
ckers 1233
municipal 1233
vous 1233
uli@@ 1233
uk 1233
Esp@@ 1233
alli@@ 1232
300@@ 1232
vegetable 1232
magazines 1232
Ð¡@@ 1232
wan 1231
Ford 1231
hosted 1231
retention 1231
po 1231
Ashton 1231
utter 1230
detected 1230
Save 1230
Sales 1230
aren 1230
individu@@ 1229
grain 1229
loads 1229
convey 1228
cus@@ 1228
design@@ 1228
organis@@ 1228
tations 1228
rest@@ 1228
margin@@ 1227
fav@@ 1227
weaknesses 1227
experiment 1227
aga 1227
manu@@ 1227
cut@@ 1227
Picard 1227
billions 1226
bic 1226
esa 1226
disappeared 1225
socialist 1225
topical 1224
coordinating 1224
acks 1224
hec@@ 1224
bond 1224
cio 1224
compla@@ 1223
possession 1223
ellers 1223
Credit 1223
YOU 1223
concessions 1222
fts 1222
bold 1222
collecting 1222
accessibility 1222
Ð² 1222
awa@@ 1221
vising 1221
thou 1221
studios 1221
affair 1220
concent@@ 1220
OSCE 1220
mig@@ 1220
Bill 1220
nick@@ 1220
injury 1220
Queen 1220
industri@@ 1219
desert 1219
identi@@ 1219
BS 1219
Pon@@ 1218
hoping 1218
comb@@ 1217
red@@ 1217
forever 1217
cure 1217
eping 1217
survi@@ 1217
thrown 1217
dest@@ 1217
alleged 1217
pling 1217
pets 1217
Lab@@ 1217
Elec@@ 1217
ppy 1217
FC 1217
toys 1216
wholly 1216
recti@@ 1216
stretch 1216
measurements 1216
nel 1216
minibar 1216
protectionism 1215
reminded 1215
placement 1215
displaced 1215
EG@@ 1215
iti 1215
oli 1215
german 1215
stret@@ 1214
overseas 1214
congress 1214
Tan@@ 1214
dark@@ 1214
liberty 1214
jan 1214
organ@@ 1214
Nav@@ 1214
road@@ 1214
pes 1214
Spirit 1214
Drive 1214
Dry 1214
teenth 1213
precautionary 1213
mitig@@ 1213
ares 1213
Kat@@ 1213
resist 1212
propaganda 1212
fabulous 1212
theater 1212
chair@@ 1211
indul@@ 1211
fis@@ 1211
facilitating 1211
Super 1211
omp@@ 1211
Egyptian 1211
Pool 1211
contradiction 1210
husband 1210
Mand@@ 1210
uniqu@@ 1210
tus 1210
Tem@@ 1210
crash 1209
positively 1209
lav@@ 1209
Any@@ 1209
Monte 1209
gan 1209
Hand@@ 1209
tranquil 1209
erup@@ 1208
ison 1207
3.5 1207
stainless 1207
poorer 1206
inequalities 1206
Il@@ 1206
lit@@ 1206
instances 1205
aked 1205
earnings 1205
momentum 1204
thirds 1204
sl@@ 1204
lifelong 1204
ranking 1204
shortage 1204
competitions 1204
Ali@@ 1204
entation 1204
Lounge 1204
interven@@ 1203
Liberals 1203
deployed 1203
fically 1203
anne@@ 1202
speculation 1202
wash@@ 1202
ature 1202
Bau@@ 1202
celebration 1202
Tel 1202
random 1201
reveals 1201
crimin@@ 1201
slight 1201
stle 1201
accompany 1201
alter@@ 1201
Es@@ 1201
ALL 1201
ament 1200
elimination 1200
wonder@@ 1200
Want 1200
servatory 1200
ae 1200
Ga@@ 1200
len 1200
Learn 1200
html 1200
replacing 1199
aults 1199
onal 1199
free@@ 1199
CL@@ 1199
EIB 1198
shoulder 1198
Version 1198
occup@@ 1198
fridge 1198
alla 1198
Advanced 1198
Ski 1198
Blo@@ 1197
segments 1197
establishments 1197
refreshing 1197
graphy 1197
rocks 1197
Consi@@ 1196
minded 1196
portable 1196
inser@@ 1196
shut 1196
rous 1196
LED 1196
etri@@ 1195
mothers 1195
cation 1195
Patten 1194
osity 1194
Tokyo 1194
Mary 1194
alogues 1194
cken 1193
let@@ 1193
tivities 1193
screen@@ 1193
Enter 1193
compli@@ 1192
disadvantaged 1192
accomplished 1192
correspond 1192
FR@@ 1192
successor 1192
Technologies 1192
template 1192
boutique 1192
gentle 1191
Love 1191
tanks 1190
negligence 1190
attending 1190
preparatory 1190
Sab@@ 1190
banana 1190
auction 1190
organizing 1190
Russians 1189
tiveness 1189
mounting 1189
pada 1189
mitting 1188
Basi@@ 1188
iring 1188
bil@@ 1188
terrain 1188
Universal 1188
varieties 1188
Ale@@ 1188
lush 1188
modular 1188
s.com 1188
utor 1187
eliminated 1187
Schulz 1187
wearing 1187
inch 1187
injection 1187
sind 1187
arena 1186
1,000 1186
queries 1186
En 1186
exemption 1185
objections 1185
recreation 1185
milit@@ 1185
lateral 1185
backup 1185
Update 1185
manually 1185
ITY 1185
Play 1185
Laundry 1185
accountable 1184
irregularities 1184
aer@@ 1184
impressed 1184
linen 1184
ava 1184
any@@ 1184
strongest 1183
threaten 1183
crop 1183
imag@@ 1183
aver@@ 1183
key@@ 1183
infection 1183
fundament@@ 1183
Hussein 1183
TM 1183
LT 1183
sten 1182
outline 1182
mail@@ 1182
disc 1182
Type 1182
Gam@@ 1182
hospitals 1181
Five 1181
influences 1181
question@@ 1180
attracted 1180
Tal@@ 1180
ounce 1180
lling 1180
broadband 1180
ig 1180
EST 1180
barely 1179
altogether 1179
dossier 1179
dev@@ 1179
journalist 1179
fici@@ 1179
turnover 1179
dealer 1179
predictable 1178
stream@@ 1178
oming 1178
Far 1178
protein 1178
geom@@ 1178
rane 1178
FREE 1178
ires 1177
cane 1177
deterior@@ 1177
bio 1177
Diam@@ 1177
confronted 1177
Docum@@ 1177
Hin@@ 1177
anna 1177
sit@@ 1176
oured 1176
fortress 1176
void 1176
spark@@ 1176
multitude 1176
onia 1176
anch@@ 1175
circul@@ 1175
anno@@ 1175
Cleaning 1175
solarium 1175
acqu@@ 1174
capitalist 1174
dening 1174
bund@@ 1174
bah@@ 1174
density 1173
gaps 1173
commissioned 1173
incurred 1173
factories 1173
Eli@@ 1173
Av@@ 1173
Auto@@ 1173
SDL 1173
bili@@ 1172
Century 1172
GMOs 1172
drag 1171
jun@@ 1171
shame 1171
ake 1171
Mit@@ 1171
cultivation 1171
immer@@ 1171
Smith 1171
intensity 1171
fier 1171
Mach@@ 1171
halls 1171
stered 1170
VE 1170
reward 1170
locate 1170
Ä@@ 1170
enfor@@ 1169
pec@@ 1169
thir@@ 1169
networking 1169
rises 1169
eggs 1169
Help 1169
Mar 1169
Renaissance 1169
agi@@ 1169
aspirations 1168
treating 1168
fel@@ 1168
home@@ 1168
Os@@ 1168
Quite 1167
stant 1167
imperi@@ 1167
GR@@ 1167
decor 1167
Jan 1166
anymore 1166
pragmatic 1166
haz@@ 1166
tif 1166
Ty@@ 1166
tt 1166
indic@@ 1165
grace 1165
repercussions 1165
ech@@ 1165
Wel@@ 1165
compan@@ 1165
positioned 1165
seller 1165
bridges 1164
Ah@@ 1164
casting 1164
neg@@ 1164
CS@@ 1164
recipient 1164
Bou@@ 1164
inte@@ 1164
Prince 1164
acknowled@@ 1163
complied 1163
May@@ 1163
ken@@ 1163
honor 1163
Tampere 1162
chains 1162
tackled 1162
elles 1162
DS9 1162
Istanbul 1161
descriptions 1161
geable 1161
zen 1161
Sul@@ 1161
deta@@ 1160
disadvantage 1160
regulating 1160
guiding 1160
springs 1160
tariffs 1160
Afghan 1160
Guinea 1160
cup 1160
Rein@@ 1160
dalam 1160
gui@@ 1159
ested 1159
eva 1159
til@@ 1158
speeds 1158
resear@@ 1158
laim@@ 1158
donation 1158
laundry 1158
9001 1158
dient 1157
pen 1157
dying 1157
burn 1157
sy 1157
trace 1157
Kno@@ 1157
bei 1157
ENT@@ 1157
respec@@ 1156
dened 1156
flora 1156
emotions 1156
updating 1156
than@@ 1156
steep 1156
host@@ 1156
360 1156
designing 1155
righ@@ 1155
Tourist 1155
Shanghai 1155
bli@@ 1154
ato@@ 1154
lend 1154
corresponds 1154
livestock 1154
mill 1154
Sports 1154
bookings 1154
shipment 1153
C4 1153
issuing 1153
rations 1153
powder 1153
diameter 1153
stro 1153
Learning 1153
Below 1153
blin@@ 1152
experimental 1152
Develop@@ 1152
Key@@ 1152
Malaysia 1152
ALDE 1152
critics 1151
mou@@ 1151
lers 1151
ector 1151
Instruments 1151
couldn 1151
Incre@@ 1150
Ã¶r@@ 1150
devastating 1149
GUE 1149
hygiene 1149
Fol@@ 1149
trau@@ 1149
lining 1149
prof@@ 1149
path@@ 1149
Scottish 1149
techn@@ 1149
Chem@@ 1149
sooner 1148
blow 1148
vulnerability 1148
screening 1148
thumb 1148
stairs 1148
CO 1148
scop@@ 1148
i.e 1148
LAN 1148
denom@@ 1147
enshrined 1147
heav@@ 1147
consultants 1147
Watch 1147
architects 1147
Coun@@ 1147
Len@@ 1147
Trump 1147
ambiguous 1146
formulated 1146
priced 1146
Bavaria 1146
Regi@@ 1146
sie 1146
Source 1146
sixth 1145
distances 1145
trendy 1145
tissue 1145
sage 1145
policymakers 1145
liberalization 1145
IR 1145
installer 1145
decides 1144
commend 1144
competing 1144
alia 1144
basin 1144
monastery 1144
Gothic 1144
Almost 1143
definitive 1143
transl@@ 1143
wet 1143
deliveries 1143
priori@@ 1142
fro@@ 1142
compensate 1142
altern@@ 1142
assumption 1142
vegetation 1142
Intel 1142
Karl 1141
generates 1141
posting 1141
fr@@ 1141
succ@@ 1141
realities 1141
Taliban 1141
Ros@@ 1141
bag@@ 1141
prevail 1140
plu@@ 1140
aesthetic 1140
Back 1139
chal@@ 1139
one@@ 1139
buffer 1139
adal@@ 1139
Garda 1139
variations 1138
exercises 1138
geared 1138
elli@@ 1138
forbidden 1138
hop 1138
RI 1138
Sri 1137
financially 1137
teeth 1137
ow@@ 1137
block@@ 1137
lifetime 1137
Publi@@ 1137
temple 1137
drawings 1137
sensors 1137
nationalism 1136
Sand@@ 1136
matching 1136
Dur@@ 1136
signatures 1136
Ok@@ 1136
verification 1135
excluding 1135
diam@@ 1135
sever@@ 1135
Ass@@ 1135
archives 1135
wins 1135
GM 1135
dimensional 1135
proph@@ 1135
ech 1135
TION 1135
Klingon 1135
fen@@ 1134
rehabilitation 1134
Level 1134
sustain 1134
screens 1134
Wat@@ 1134
schol@@ 1134
Ly@@ 1134
B.@@ 1134
Ð¿Ð¾@@ 1134
Verheugen 1133
Rou@@ 1133
picked 1133
noisy 1133
Bonn 1133
ec 1133
olds 1132
oth@@ 1132
dium 1132
sciences 1132
Black@@ 1132
orange 1132
varies 1131
occasionally 1131
Certainly 1131
Serbian 1131
Holland 1131
1979 1131
hang 1131
Cit@@ 1131
Cast@@ 1131
Price 1131
Cour@@ 1131
licenses 1131
mani@@ 1130
utes 1130
140 1130
commission@@ 1130
coupled 1130
mails 1130
frozen 1130
Lei@@ 1130
breast 1130
GE 1130
personalized 1130
Ð½Ñ@@ 1130
severely 1129
sister 1129
vocal 1129
ames 1129
conceived 1129
coup 1128
secular 1128
licences 1128
assu@@ 1128
accoun@@ 1128
nt 1128
CP 1128
ÑÐµ@@ 1128
substitute 1127
resident 1127
sex@@ 1127
Computer 1127
Daniel 1127
iny 1127
DÃ¼sseldorf 1127
Boh@@ 1127
05@@ 1126
mature 1126
flood 1126
refund 1126
buil@@ 1126
Tarifa 1126
alistic 1125
bulk 1125
generic 1125
therap@@ 1125
Production 1125
Buyer 1125
embargo 1124
Venezuela 1124
acres 1124
soli@@ 1124
arities 1124
credited 1123
Little 1123
motto 1123
nau@@ 1123
simulation 1123
notify 1122
Questions 1122
symptoms 1122
defended 1122
incredibly 1122
SL@@ 1122
spor@@ 1122
shores 1121
Competition 1121
IL 1121
destroying 1121
GU@@ 1121
broke 1120
occurring 1120
part@@ 1120
gency 1120
biotechnology 1120
Ele@@ 1120
Hum@@ 1120
SD 1120
ferred 1119
use@@ 1119
Meas@@ 1119
subsi@@ 1119
accurately 1119
Hot@@ 1119
Iceland 1118
Lou@@ 1118
pump 1118
Ker@@ 1118
failures 1117
dear 1117
Jordan 1117
Resolution 1117
aband@@ 1117
recreational 1117
tub 1117
capita 1116
wood@@ 1116
Main@@ 1116
pet 1116
Hill 1116
construc@@ 1115
establishes 1115
sided 1115
Institu@@ 1115
chaos 1115
Lar@@ 1115
exclu@@ 1115
slave 1115
Commerce 1115
MEP 1114
pet@@ 1114
college 1114
alarming 1114
tuna 1114
fireplace 1114
prohi@@ 1113
somehow 1113
motivation 1113
ans@@ 1113
proofed 1113
KG 1113
Sup@@ 1112
ank 1112
restriction 1112
Vic@@ 1112
Around 1112
storm 1111
Has 1111
stran@@ 1111
happ@@ 1111
1970s 1111
promotional 1111
tier 1110
earliest 1110
Works 1110
cir@@ 1110
diff@@ 1110
Nord 1110
zi 1110
ku 1110
Word 1110
BÃ¶rse 1110
sel 1109
appropriately 1109
duly 1109
axis 1109
Bed@@ 1109
Tam@@ 1109
5,@@ 1109
Gau@@ 1109
promenade 1109
meng@@ 1109
seasonal 1108
typ@@ 1108
moul@@ 1108
sor 1108
UM@@ 1108
enchanting 1108
envis@@ 1107
passage 1107
Fischler 1107
longest 1107
Sant 1107
A3@@ 1107
fabrics 1107
FOR@@ 1107
constituency 1106
promptly 1106
lot@@ 1106
therapeutic 1106
Inv@@ 1106
pity 1105
deter@@ 1105
ulated 1105
dently 1105
tends 1105
Sound 1105
endo@@ 1105
chef 1105
Cou@@ 1105
J. 1105
Wikicars 1105
Madeira 1104
chips 1104
ethics 1104
possess 1104
feeding 1104
gourmet 1104
bon 1103
demonstrating 1103
ure@@ 1103
enta 1103
cht 1103
english 1103
tongue 1102
phenomena 1102
mil@@ 1102
Lev@@ 1102
illu@@ 1102
scan 1102
privilege 1101
func@@ 1101
py@@ 1101
Play@@ 1101
cz@@ 1101
Photocopying 1101
cially 1100
contamination 1100
precedent 1100
Bul@@ 1100
Ref 1100
advocates 1099
Maybe 1099
Yesterday 1099
cocktail 1099
fulfill 1099
beneficiaries 1098
consul@@ 1098
abolished 1098
Respon@@ 1098
uncertain 1098
assemb@@ 1098
ssa 1098
Timor 1098
Sarkozy 1098
legitim@@ 1097
stricter 1097
forecasts 1097
Initiative 1097
contribut@@ 1097
chronic 1097
cave 1097
Seville 1097
kov@@ 1097
ind@@ 1097
photographer 1097
Fir@@ 1096
Father 1096
Bundes@@ 1096
versatile 1096
CAD 1096
inau@@ 1095
attentive 1095
detriment 1095
foreigners 1095
RES@@ 1095
criticisms 1094
gering 1094
linear 1094
negoti@@ 1094
sudden 1094
delightful 1094
rich@@ 1094
administrator 1093
tune 1093
bom@@ 1093
exceeded 1093
ambigu@@ 1093
ho 1093
Starting 1093
Wo@@ 1093
shapes 1093
Up@@ 1093
orient@@ 1092
conception 1092
mankind 1092
punished 1092
outs@@ 1092
likes 1092
connects 1092
inherent 1091
rene@@ 1091
Globalisation 1091
DI 1091
Prix 1091
zoom 1091
distur@@ 1090
specification 1090
Directors 1090
acute 1090
sul@@ 1090
Ent@@ 1090
instruction 1089
lacks 1089
cand@@ 1089
animation 1089
Prof. 1089
Ä±@@ 1089
clarified 1088
Europa 1088
defect 1088
seaf@@ 1088
Auth@@ 1088
os@@ 1088
catalog 1088
eks 1087
injured 1087
incomplete 1087
strip 1087
lag@@ 1087
privati@@ 1087
rac@@ 1087
dle 1086
burdens 1086
trigger 1086
subsidiaries 1086
Jer@@ 1086
europ@@ 1085
confront 1085
nationality 1085
enforced 1084
worthwhile 1084
suspect 1084
rus 1084
CÃ´te 1084
mentation 1084
discounts 1084
peaks 1084
zione 1084
Ñ 1084
tionality 1083
fast@@ 1083
exported 1083
scandal 1083
edy 1083
aga@@ 1083
Championship 1083
depl@@ 1082
bes@@ 1082
Anim@@ 1082
finger 1082
Goals 1082
itiner@@ 1082
Kam@@ 1082
clari@@ 1081
populated 1081
Clo@@ 1081
documentary 1081
gi 1081
lawyer 1080
Balkan 1080
consciousness 1080
Rus@@ 1080
colourful 1080
backdrop 1080
jump 1080
Follow 1080
gun@@ 1080
ria 1080
Motor@@ 1080
BE 1080
containers 1079
devote 1079
forcing 1079
dable 1079
ith 1079
Ibiza 1079
d.@@ 1079
critici@@ 1079
transi@@ 1078
expects 1078
fat@@ 1078
destabili@@ 1078
verified 1078
ima@@ 1078
misleading 1077
echo@@ 1077
corrected 1077
persistent 1076
Tibetan 1076
Santer 1076
unite 1076
judged 1076
onom@@ 1076
illegally 1076
masters 1076
Near 1076
eric 1076
FA@@ 1076
visi@@ 1076
bow@@ 1076
triple 1076
eh 1076
yacht 1076
uan 1076
Ã¸@@ 1075
ordin@@ 1075
rali@@ 1075
Police 1075
encryption 1075
forti@@ 1075
molec@@ 1075
oven 1075
yards 1074
gle@@ 1074
copper 1074
infected 1073
univers@@ 1073
indicating 1073
formali@@ 1073
horri@@ 1073
sof@@ 1073
valleys 1073
tiles 1073
stadt 1072
timber 1072
rigid 1072
reflecting 1072
ticism 1072
brown 1072
ologist 1072
peti@@ 1072
Beg@@ 1072
Arctic 1072
Orchestra 1072
termination 1071
mechan@@ 1071
ront 1071
Try 1071
surf 1071
Gate 1071
Pul@@ 1071
brigh@@ 1071
Classic 1071
simpler 1070
utable 1070
pered 1070
mutually 1070
tired 1070
vir@@ 1070
2014 1070
magical 1070
seating 1070
criticised 1069
Monti 1069
trage@@ 1069
400@@ 1069
postponed 1069
assumes 1069
purchaser 1069
berry 1069
realization 1069
Dun@@ 1068
ICE 1068
ja@@ 1068
qui 1068
blend 1068
likewise 1067
legisl@@ 1067
ough 1067
anding 1067
Bern@@ 1067
weak@@ 1066
Caucasus 1066
unded 1066
fairs 1066
rentals 1066
submitting 1065
balancing 1065
Naples 1065
Relax 1065
recommends 1064
deri@@ 1064
submission 1064
phases 1064
drama 1064
passive 1064
Patri@@ 1064
API 1064
ions 1063
ston 1063
Hal@@ 1063
bor 1063
licensing 1062
particip@@ 1062
ees 1062
conversation 1062
yn 1062
composer 1062
optimization 1062
liter@@ 1061
princip@@ 1061
steady 1061
sensi@@ 1061
humane 1061
eses 1061
deposits 1061
confused 1060
entails 1060
urged 1060
tern@@ 1060
arily 1060
altered 1060
pesticides 1060
ologists 1060
ago@@ 1060
Night 1060
12th 1060
laptop 1060
dealers 1059
recordings 1059
fund@@ 1059
scenic 1059
understands 1058
humili@@ 1058
expecting 1058
emplo@@ 1058
Brazilian 1058
sic 1058
business@@ 1058
onn@@ 1058
Prot@@ 1058
matched 1057
infin@@ 1057
discriminatory 1057
Nowadays 1057
pop@@ 1057
conduc@@ 1057
Winter 1057
approxim@@ 1056
vague 1056
echo 1056
sequ@@ 1056
sty 1056
awaiting 1055
harsh 1055
notable 1055
flour@@ 1055
contracting 1055
democratisation 1055
aten 1055
truck 1055
sehr 1055
06@@ 1054
..... 1054
Ful@@ 1054
onds 1054
gratitude 1053
genic 1053
wns 1053
motiv@@ 1053
royal 1053
Direct 1053
childhood 1053
tum@@ 1053
Built 1053
playground 1053
judiciary 1052
shaping 1052
violated 1052
Sus@@ 1052
expec@@ 1052
discou@@ 1052
Tom 1051
remark 1051
seeds 1051
Connec@@ 1051
memorable 1051
Purch@@ 1051
HT@@ 1051
ÑÐ¾@@ 1051
renovation 1050
ext@@ 1050
Taking 1050
Bla@@ 1050
strations 1050
mixing 1050
deterioration 1050
you@@ 1050
Bell@@ 1050
unia 1050
fting 1049
appalling 1049
modi@@ 1049
radioactive 1049
CAR@@ 1049
tag@@ 1049
peninsula 1048
rum@@ 1048
viewer 1048
zen@@ 1048
bra 1048
como 1048
1.2 1047
inability 1047
incoming 1047
participant 1047
ologies 1047
lov@@ 1047
juice 1047
restoring 1046
Antonio 1046
ota 1046
eld 1046
10,000 1046
az 1046
kli@@ 1046
adapting 1045
recruitment 1045
Jacques 1045
Exc@@ 1045
Official 1045
optimistic 1045
CF@@ 1045
forecast 1045
stimulating 1044
charging 1044
iner 1044
intuitive 1044
MM@@ 1044
zur 1044
achiev@@ 1043
merit 1043
Darfur 1043
Gift 1043
live@@ 1042
swim 1042
anded 1042
ampli@@ 1042
kingdom 1042
proprietary 1042
Application 1042
HS 1042
binary 1042
mins 1042
ender 1041
Scientific 1041
rendered 1041
conven@@ 1041
scho@@ 1041
Studies 1041
Olympus 1041
R. 1041
phi@@ 1041
Available 1041
irresponsible 1040
Brok 1040
ached 1040
arre@@ 1040
1984 1040
inserted 1040
Got@@ 1040
dev 1040
influential 1039
delight 1039
anybody 1039
Cz@@ 1039
friendship 1039
HD@@ 1039
undermining 1038
expresses 1038
enthusiasts 1038
sity 1038
adju@@ 1038
lis 1038
exhaus@@ 1037
thread 1037
stamp@@ 1037
1967 1037
additives 1037
internally 1037
sos 1037
Throughout 1037
worn 1037
Days 1037
robots 1037
USE 1037
dish@@ 1036
Mak@@ 1036
biofuels 1036
Euros 1036
Israelis 1035
Inclu@@ 1035
Cuban 1035
amo 1035
travel@@ 1035
tful 1034
opposing 1034
Santiago 1034
tastes 1034
news@@ 1034
Ñ 1034
ergies 1033
manages 1033
fathers 1033
ped@@ 1033
round@@ 1033
lun@@ 1033
ges@@ 1033
ATA 1033
disappointment 1032
dirty 1032
Assi@@ 1032
coin 1032
toll 1032
continu@@ 1032
Doctor 1032
za@@ 1032
assisted 1031
Phot@@ 1031
Sir 1031
empire 1031
Bak@@ 1031
Prices 1031
70@@ 1031
consi@@ 1030
cel 1030
breath 1030
Supreme 1030
translators 1030
sey 1030
Meg@@ 1030
gladly 1029
modernis@@ 1029
Rad@@ 1029
chant 1029
approaching 1029
civilisation 1029
harmonise 1029
gifts 1029
Liberties 1029
enthusiastic 1029
prizes 1029
traces 1029
Kit@@ 1029
IF 1029
assass@@ 1028
calculations 1028
recy@@ 1028
Initi@@ 1028
guest@@ 1028
bomb 1027
contradic@@ 1027
norms 1027
credi@@ 1027
politan 1027
acity 1026
vocation 1026
ren 1026
sexu@@ 1026
atics 1026
Cop@@ 1026
Provence 1026
snack 1026
Key 1025
Accordingly 1025
bow 1025
hits 1025
ret 1025
Various 1024
transposition 1024
accessing 1024
EB@@ 1024
monument 1024
dot@@ 1024
Get@@ 1024
Adri@@ 1024
Angeles 1024
Reserv@@ 1024
Panasonic 1024
fauna 1023
dou@@ 1023
1978 1023
appropri@@ 1022
unclear 1022
unexpected 1022
fashionable 1022
Mass@@ 1022
Poly@@ 1022
Lido 1022
biking 1022
odi@@ 1021
ring@@ 1021
Upper 1021
Collection 1021
wholeheartedly 1020
claiming 1020
engineer 1020
footing 1020
intermediate 1020
weaker 1020
suicide 1020
Milosevic 1020
rier 1020
SW@@ 1020
acies 1019
trillion 1019
confined 1019
operative 1019
upgraded 1019
HR 1019
bets 1019
adhere 1018
servants 1018
Sky 1018
ineffective 1017
reformed 1017
disability 1017
professionalism 1017
enda 1017
anian 1017
positioning 1017
coloured 1017
nan@@ 1017
oils 1017
junior 1017
Kin@@ 1017
extract 1016
sick 1016
Copyright 1016
fiction 1016
Ã½ 1016
locating 1015
correc@@ 1015
onder@@ 1015
encouragement 1015
authoritarian 1015
duced 1015
tas 1015
donations 1015
Gold@@ 1015
emphasises 1014
concluding 1014
thly 1014
jeopardi@@ 1014
prefer@@ 1014
exert 1014
Gran@@ 1014
thetic 1014
yar@@ 1014
Installation 1014
DR 1014
UT 1014
scenarios 1013
facto 1013
govern@@ 1013
Proc@@ 1013
iel@@ 1013
Kol@@ 1013
3.0 1013
investor 1012
distortion 1012
disappointing 1012
Anna 1012
ih@@ 1012
Review 1012
venues 1012
jury 1012
icons 1012
9th 1012
ARE 1012
supposedly 1011
onwards 1011
uphold 1011
scienti@@ 1011
eman@@ 1011
Water@@ 1011
sens@@ 1011
Particip@@ 1011
exhibitors 1011
Banquet 1011
Ò£ 1011
pem@@ 1011
prob@@ 1010
monopolies 1010
exagger@@ 1010
chapters 1010
sacrifice 1010
lucky 1010
hit@@ 1010
console 1010
filed 1009
anonymous 1009
comprising 1009
bank@@ 1009
idyllic 1009
JosÃ© 1009
vil 1009
cap 1009
Alpha 1009
cozy 1009
tones 1008
sentences 1008
ket 1008
slot 1008
columns 1008
conductor 1008
cellar 1008
essors 1007
exer@@ 1007
tap 1007
delic@@ 1007
abortion 1007
CM@@ 1007
Jackson 1006
refuge 1006
Shar@@ 1006
rooted 1006
vacc@@ 1006
IK@@ 1006
Tools 1006
Democrat 1005
literary 1005
straightforward 1005
RS 1005
SL 1005
optimize 1005
circles 1004
accu@@ 1004
pron@@ 1004
Customs 1004
Cel@@ 1004
federation 1004
hydraulic 1004
chen@@ 1004
det 1004
Audio 1004
demo 1004
embry@@ 1003
Cham@@ 1003
fet@@ 1003
Kim 1003
yours 1002
interrupted 1002
mili@@ 1002
manipulation 1002
jack@@ 1002
esti@@ 1002
GO 1002
Victoria 1002
strasse 1002
disparities 1001
sectoral 1001
interpret 1001
unequi@@ 1001
applicants 1001
etta 1001
Harbour 1001
commodities 1001
orph@@ 1001
Avenue 1001
Wales 1000
ane@@ 1000
seasons 1000
8th 1000
fa 1000
showers 1000
Ï@@ 1000
beginners 1000
petition 999
ycle 999
synthetic 999
horny 999
adop@@ 998
condemnation 998
offensive 998
dare 998
suspend 998
cow 998
lie@@ 998
Mexican 998
chron@@ 998
copy@@ 998
Ñ@@ 998
Ñ 998
appoint 997
predecessor 997
remembered 997
Already 997
pumps 997
TC 997
berger 997
ju 997
requesting 996
san 996
Currency 996
dispat@@ 996
inn 996
Ð½Ð°@@ 996
reiter@@ 995
winds 995
Cav@@ 995
murdered 995
arch 995
appealing 994
lengthy 994
weaken 994
destructive 994
NGL 994
celebrations 994
sto 994
ecommerce 994
tec 994
.ch 994
fines 993
dynamics 993
eco@@ 993
xenophobia 993
letting 993
scores 993
perform@@ 993
Leg@@ 993
singing 993
Australian 993
Airconditioning 993
multiannual 992
drop@@ 992
found@@ 992
alert 992
attributed 992
eval 992
ctions 992
GM@@ 992
LAN@@ 992
COD 991
indicator 991
anticip@@ 991
flags 991
resume 991
sat 991
depar@@ 991
Tex@@ 991
shoe 991
Frank 991
stipul@@ 990
Fourthly 990
foreseen 990
1960 990
methodology 990
Alber@@ 990
DNA 990
4,@@ 990
Vor@@ 990
smoothly 989
climb 989
hub 989
stries 989
trucks 989
yea 989
travelers 989
Jacuzzi 989
seal 988
gates 988
archaeological 988
assy 988
ored 988
1960s 988
kne@@ 988
finger@@ 988
zum 988
Î±@@ 988
Parking 988
ultra@@ 987
virtue 987
awaits 987
Mod@@ 987
cosmetic 987
Stu@@ 987
Son@@ 987
locals 987
enth@@ 987
sky@@ 987
Photo 987
deprived 986
assuming 986
nominated 986
obe@@ 986
ousness 986
Palacio 985
rable 985
defen@@ 985
invented 985
writes 985
brothers 985
Stay 985
beg@@ 984
ager 984
Hy@@ 984
Juan 984
Tuscan 984
informations 984
codi@@ 983
cial 983
Van@@ 983
shire 983
Limited 983
reproductive 983
1975 983
Past@@ 983
platz 983
instruc@@ 982
abstract 982
pin@@ 982
None 982
accelerate 982
towers 982
ever@@ 982
RAM 982
Apache 982
favoured 981
hoods 981
investigated 981
qualitative 981
salaries 981
supplying 981
share@@ 981
scann@@ 981
pp 981
happiness 980
packing 980
castles 980
Emperor 980
pts 980
mir 980
Christ@@ 980
four@@ 979
Oslo 979
young@@ 979
intermedi@@ 979
age@@ 979
&apos;E@@ 979
tahun 979
interfere 978
tar 978
undermined 978
metre 978
Whenever 978
Cape 978
vention 977
Did 977
somebody 977
Henry 977
24th 977
retreat 977
crowd 977
adhe@@ 977
Var@@ 977
bass 977
Cala 977
SSL 977
explanatory 976
gle 976
contradictory 976
leverage 976
erie 976
scape 976
Ã©r@@ 976
traveling 976
Fif@@ 975
amaz@@ 975
exemplary 975
desires 975
grows 975
gun 975
Andreas 975
es.@@ 975
merits 974
oun@@ 974
Beyond 974
caution 974
minors 974
tch 974
rez 974
Fun@@ 974
450 974
tournaments 974
nach 974
cam 974
Premium 974
administrations 973
hereby 973
apo@@ 973
fifty 973
lug@@ 973
Classi@@ 973
cafes 973
IO 973
Barack 973
warned 972
Basque 972
fresh@@ 972
dependency 972
edges 972
emis@@ 972
alizing 972
subsidy 971
offences 971
usable 971
hops 971
Stock 971
Keep 971
pit 971
regulators 971
pupils 971
11th 971
Magic 971
handic@@ 970
threatens 970
tali@@ 970
intellec@@ 970
aters 970
Run@@ 970
Peru 970
Basic 970
acqui@@ 969
GBP 969
INTER@@ 969
creatures 969
ceilings 969
administ@@ 969
continents 969
parish 969
tastefully 969
Machine 969
Ä 969
postp@@ 968
publicity 968
politician 968
adver@@ 968
chem@@ 968
consultancy 968
determines 968
cription 968
Pil@@ 968
crafts 968
Slovenian 968
Temple 968
emails 968
Km 968
obligatory 967
dozens 967
Sici@@ 967
biom@@ 967
buff@@ 967
kitchenette 967
champion 966
presum@@ 966
expressions 966
excav@@ 966
attributes 966
neck 966
memb@@ 966
PRO 966
Tat@@ 966
Lanzarote 966
fon@@ 966
comitology 965
surveys 965
thou@@ 965
aca 965
frequ@@ 965
essi@@ 965
1982 964
agne 964
149 964
aph@@ 964
iser 964
brochure 964
Fur@@ 964
readily 963
get@@ 963
lifted 963
prevailing 963
multilingual 963
pipe 963
VER@@ 963
Ð¾Ð»@@ 963
Hop@@ 962
cham@@ 962
draftsman 962
jer@@ 962
mond 962
prostitution 962
rant 962
vern@@ 962
enni@@ 962
prosperous 961
insecurity 961
dancing 961
corrupt 961
employer 961
deregulation 961
Major 961
discovering 961
Speed 961
feld 961
Pit@@ 961
manship 960
wealthy 960
tee 960
sail 960
learnt 960
isol@@ 960
gy 960
ika 960
Kenya 960
Awards 960
ratings 959
mentioning 959
thirdly 959
harmonious 959
discre@@ 959
plastics 959
nos 959
Companies 959
fleets 959
counters 959
vors 959
Ã©ri@@ 959
AKVIS 959
perc@@ 958
Steel 958
modern@@ 958
cha@@ 958
poorly 958
moratorium 958
transferring 957
copied 957
3000 957
Collec@@ 957
Consul@@ 957
cocktails 957
Cubase 957
ceful 956
swift 956
qualify 956
beverages 956
seam@@ 956
depression 956
cafÃ© 956
Benjamin 956
gent@@ 956
TER@@ 956
strengths 955
Others 955
prejudice 955
xing 955
rally 955
enjoyment 955
1968 955
shoot 955
honey 955
els@@ 955
stipulated 954
abolish 954
ority 954
inventory 954
rul@@ 954
persec@@ 954
gues 954
vation 954
carriage 954
Ã¦@@ 954
ade@@ 954
roll@@ 954
slope 954
Name 954
loose 953
highlighting 953
Syrian 953
owe 953
professor 953
county 953
unk 953
graduate 953
Chicago 953
bree@@ 953
Musi@@ 953
lea@@ 952
protocols 952
pilgri@@ 952
historically 952
Property 952
curi@@ 952
roman@@ 952
Mid@@ 951
benefited 951
Countries 951
relatives 951
famili@@ 951
peac@@ 951
fru@@ 951
Pierre 951
opponent 951
esse 951
neutrali@@ 951
REACH 951
refusing 950
cataly@@ 950
electorate 950
copying 950
domains 950
1950 950
patented 950
mare 950
lebih 950
brush 949
dict 949
collectively 949
mir@@ 949
pubs 949
mari@@ 949
fen 949
DIN 949
imply 948
shipped 948
spar@@ 948
mittedly 948
outlook 948
Bavarian 948
exceeds 948
ason 948
5,000 948
U.@@ 948
Sz@@ 948
incompatible 947
Leonardo 947
tail 947
Aires 947
etch 947
switching 947
SMS 947
Consulting 947
risen 946
petrol 946
cooperating 946
underway 946
loyalty 946
Baroness 946
ef 946
Sciences 946
ION 946
balconies 946
1976 945
rejecting 945
fec@@ 945
vot@@ 944
volunteers 944
fairness 944
spices 944
prem@@ 944
Cambodia 944
Sit@@ 944
wich 944
sym@@ 944
inters 944
Buenos 944
bou@@ 944
arisen 943
differing 943
CFSP 943
embark@@ 943
insisted 943
malaria 943
Abu 943
neighborhood 943
prehen@@ 942
Kremlin 942
expor@@ 942
196 942
ancest@@ 942
holy 942
basi@@ 942
exemp@@ 941
overla@@ 941
Albanian 941
breakthrough 941
tural 941
realm 941
,00 941
remit 940
embar@@ 940
eleven 940
Channel 940
logos 940
astronom@@ 940
Dre@@ 940
font 940
foreseeable 939
redundant 939
Gol@@ 939
rough 939
rt 939
hatred 938
sacred 938
Å@@ 938
kat 938
atan 938
traders 937
veto 937
warmth 937
jan@@ 937
FAQ 937
suspected 936
frankly 936
normali@@ 936
Itali@@ 936
Merkel 936
odic 935
swiftly 935
embo@@ 935
sharply 935
tuals 935
Province 935
Baden 935
weekends 935
subway 935
terri@@ 934
stopping 934
eux 934
twentieth 934
assembled 934
impa@@ 934
oxi@@ 934
repe@@ 933
time@@ 933
institutes 933
refin@@ 933
combinations 933
AB 933
Mercedes 933
nik 933
este 933
odds 932
absor@@ 932
curious 932
cann@@ 932
unk@@ 932
ilers 932
dell 932
ahan 932
entirety 931
lean 931
consequ@@ 931
salary 931
grapes 931
Pope 931
35@@ 931
coat 931
Ã¼@@ 931
hath 931
massages 931
lectures 930
Sat@@ 930
femin@@ 930
Hau@@ 930
Customers 930
6,@@ 930
templates 930
neighbor@@ 930
turally 929
Chair 929
trium@@ 929
stre@@ 929
Pop@@ 929
frontier 929
Managing 929
Alternatively 928
exercised 928
stimul@@ 928
peculi@@ 928
Verts 928
Sky@@ 928
musi@@ 928
tori@@ 927
realisation 927
reck@@ 927
buyers 927
teen@@ 927
geni@@ 927
plant@@ 927
beliefs 926
atoes 926
chas@@ 926
low@@ 926
CIA 926
Vis@@ 926
compression 926
completeness 926
inate 925
thei@@ 925
has@@ 925
hybrid 925
cone 925
encrypted 925
Qui@@ 925
absent 924
outcomes 924
dentally 924
dedication 924
nowhere 924
excessively 924
explaining 924
govern 924
pocket 924
beam 924
interviews 924
OP@@ 924
0.000 924
kem@@ 924
xx 924
FS 924
Ã¯@@ 923
Avi@@ 923
egg 923
resses 923
Tab@@ 923
G20 923
pixels 923
constra@@ 922
weakened 922
Granada 922
reflec@@ 922
dial@@ 922
preview 922
cookie 922
lamps 921
bananas 921
foo@@ 921
chy 921
manipul@@ 921
Cairo 921
ishment 921
Low 921
Que@@ 921
sar@@ 921
aciones 921
chap@@ 920
corners 920
schi@@ 920
Att@@ 920
Monitoring 920
recei@@ 920
MD@@ 920
Gy@@ 920
patio 920
Senate 919
distingu@@ 919
disorders 919
Ã¢ 919
Ironing 919
Store 919
vivi@@ 918
Premier 918
immune 918
steadily 918
Nat@@ 918
clou@@ 918
palm 918
FF@@ 918
Beauty 918
idity 918
beta 918
Wine 918
patience 917
smell 917
advocated 917
Nuclear 917
imprisoned 917
acre 917
Self 917
gene 917
woo@@ 917
Send 917
Sound@@ 917
catastrophe 916
Regions 916
recourse 916
otic 916
Techn@@ 916
performs 916
Ji@@ 916
guys 916
handy 916
Course 916
Tool 916
transmit 915
cheap@@ 915
incorporating 915
triggered 915
unchanged 915
beginn@@ 915
And@@ 915
elect 915
situ@@ 915
legs 915
legend 915
volcanic 915
earmarked 914
suspicion 914
geopolitical 914
envel@@ 914
lady 914
ben 914
debut 914
marina 914
withstanding 913
Ã§a 913
ova 913
betting 913
ceramic 913
sq@@ 913
utely 912
MAR@@ 912
agen@@ 912
gic 912
confron@@ 912
cratic 912
wellbeing 912
pluralism 912
Der@@ 912
ego 912
cca 912
distortions 911
Mess@@ 911
insofar 911
warn 911
communicated 911
agreeing 911
eu 911
1983 911
umes 911
senses 911
Fire 911
vy 910
predict 910
Frank@@ 910
underp@@ 910
Remember 910
stup@@ 910
recognising 910
aric 910
refrain 910
mali@@ 910
Often 910
durable 910
struggling 910
successive 909
ailing 909
traceability 909
rain@@ 909
Person@@ 909
multinationals 908
premature 908
kn@@ 908
planted 908
deliberate 908
casts 908
Eurostat 908
laun@@ 908
leng@@ 908
ologi@@ 908
unspo@@ 908
Manhattan 908
consuming 907
Produc@@ 907
reunification 907
extraction 907
rability 907
Adam 907
Beautiful 907
Seven 906
Communities 906
Siena 906
mask 906
emo@@ 906
Easter 906
Early 906
Typ@@ 906
Bay@@ 906
Brun@@ 906
antes 906
DL@@ 906
welding 906
unilater@@ 905
simplifying 905
ety 905
marvellous 905
preci@@ 905
embrace 905
bench@@ 905
hair@@ 905
sunshine 905
tasting 905
starship 905
ÑÐ¾@@ 905
sponsored 904
Kinnock 904
Beh@@ 904
mediation 904
episodes 904
liqui@@ 904
Blan@@ 904
terminals 904
simplicity 904
I.@@ 904
muy 904
hitherto 903
mentions 903
eag@@ 903
Cash 903
Ry@@ 903
banning 902
gay 902
extensions 902
reconcile 902
explosion 902
calculate 902
tox@@ 902
loop 902
receiver 902
thickness 902
touches 901
Soci@@ 901
exhaust 901
emph@@ 901
accredi@@ 901
lac@@ 901
illum@@ 901
invention 901
Ages 901
tioners 901
cruise 901
Top@@ 901
bell 901
gas@@ 901
BM@@ 901
Borg 901
ÐµÑ@@ 901
professions 900
CNS 900
tolerate 900
EURO@@ 900
outbreak 900
kt@@ 900
semi@@ 900
religions 900
Gl@@ 900
Sau@@ 900
Active 900
thic 900
Ideal 900
habits 899
Majorca 899
specialties 899
rebuild 898
obstruc@@ 898
unification 898
recital 898
challenged 898
associate 898
oling 898
impul@@ 898
Venetian 898
Marbella 898
straÃe 898
sadly 897
reforming 897
postpone 897
courageous 897
stock@@ 897
cycli@@ 897
tter 897
actu@@ 897
sentenced 896
suggesting 896
lesser 896
celebrating 896
mainstream 896
neglected 896
Commander 896
ebook 896
quo 895
sson 895
parliamentarians 895
cluster 895
innov@@ 895
glance 895
theatres 895
rays 895
Ã«@@ 895
Delta 895
Create 895
subordin@@ 894
privatisation 894
Chapter 894
demic 894
iger 894
exporting 894
aker 894
Inst@@ 894
Cru@@ 894
Surely 893
Journal 893
Hollywood 893
pitch 893
mati@@ 893
Berlusconi 893
plat@@ 893
neighbors 893
margins 892
criticise 892
cake 892
station@@ 892
heaven 892
boy@@ 892
evaluating 892
Algarve 892
lingu@@ 892
expan@@ 892
0.5 892
tico 892
oping 892
harmonization 892
evolved 891
aton 891
illustrate 891
fruitful 891
counterparts 891
Recent 891
deposi@@ 891
isons 891
cloning 891
publisher 891
volunte@@ 891
Emer@@ 891
Adjustment 891
outlin@@ 890
urity 890
judgments 890
eph@@ 890
CC@@ 890
aly@@ 890
recipes 890
aka 890
Son 890
quiet@@ 890
entail 889
interpre@@ 889
floating 889
Ps 889
emin@@ 889
ekeeping 889
ete 889
ILO 889
recipe 889
Cul@@ 889
000@@ 889
browse 889
amente 889
substantive 888
enligh@@ 888
frustr@@ 888
behave 888
ander 888
Excel 888
engaging 887
reinforcing 887
Ran@@ 887
nationalist 886
confrontation 886
desperate 886
associ@@ 886
rative 886
queu@@ 886
Gil@@ 886
MAN@@ 886
mÃ¡s 886
disturbing 885
Men 885
Oil 885
questionable 885
indu@@ 885
oman 885
1973 885
compressed 885
Stan@@ 885
Date 885
Oli@@ 884
galax@@ 884
Red@@ 883
reas@@ 883
Kre@@ 883
disgu@@ 883
builds 883
deduc@@ 883
Pau@@ 883
pipes 883
caves 883
Neighbourhood 883
Log@@ 883
prosecution 882
Champ@@ 882
Lower 882
aired 882
helicopter 882
bration 882
Reader 882
forefront 881
thematic 881
breaches 881
90@@ 881
ush@@ 881
Marine 881
stuck 881
Governments 881
conv@@ 881
wie 881
UR 881
68@@ 881
Print 881
analyze 881
brake 880
dation 880
neighbour 880
dose 880
mercury 880
culmin@@ 880
Fel@@ 880
injuries 880
Sard@@ 880
ett 880
millennium 879
objection 879
informing 879
proactive 879
ear 879
tained 879
assign 879
FO@@ 879
accum@@ 879
Mugabe 879
DJ 879
authorization 879
steering 878
assistant 878
TA@@ 878
conformity 878
derivatives 878
employs 878
iles 878
adjustable 878
recogni@@ 878
LateRooms.com 878
orts 877
inspectors 877
overlook 877
holdings 877
unders 877
distri@@ 877
inal 877
Eurex 877
advisable 876
Overall 876
impor@@ 876
hike 876
zer@@ 876
focal 875
Bab@@ 875
colony 875
spatial 875
etz@@ 875
interiors 875
hoc 874
mainland 874
spheres 874
wned 874
span 874
cers 874
PCs 874
athletes 874
Concerning 873
frontiers 873
surprisingly 873
1981 873
zzle 873
bedding 873
Hz 873
ING@@ 873
simpli@@ 872
evalu@@ 872
gestion 872
Gender 872
iners 872
strain 872
vens 872
Franz 872
discourse 872
reminds 872
paraly@@ 872
coa 872
slogan 872
olo 872
missile 872
Battle 872
Bahn 872
.jpg 872
Ast@@ 871
radically 871
Maritime 871
pav@@ 871
correctness 871
inhabited 871
editorial 871
G8 871
T. 871
green@@ 871
wen@@ 871
GT@@ 871
ject 870
milestone 870
constituents 870
attendance 870
cautious 870
occupational 870
Fat@@ 870
assortment 870
VI@@ 869
tended 869
eira 869
geographic 869
County 869
targeting 869
But@@ 869
planes 869
128 869
Us 869
omas 869
Soft 869
architec@@ 869
CH 869
anticipate 868
contaminated 868
assignment 868
strengthens 868
defeated 868
hero@@ 868
Ten 868
Six 868
Fine 868
ttably 868
informative 868
fixes 868
WiFi 868
Editor 868
breakdown 867
promotions 867
signat@@ 867
Every@@ 867
Boo@@ 867
TE@@ 867
Kan@@ 867
allet 867
Î¿@@ 867
detrimental 866
enrich@@ 866
Commun@@ 866
slaughter 866
midnight 866
prim@@ 866
twi@@ 866
dden 866
Canal 866
charts 866
Terminal 866
kindly 865
DG 865
Sahara 865
atis@@ 865
appliances 865
cereals 865
arc@@ 865
S.A. 865
Estate 865
underlined 864
veri@@ 864
tant 864
mos 864
egoti@@ 864
Ten@@ 864
thrust 863
comprehen@@ 863
precarious 863
kil@@ 863
Sustainable 863
ats@@ 863
bury 863
Let@@ 863
ris 863
Zone 863
incapable 862
170 862
organisational 862
1.1 862
communic@@ 862
Head@@ 862
gene@@ 862
commerci@@ 862
Wolfgang 862
cas 862
dio 862
ula 862
-B4 862
obli@@ 861
reign 861
monitors 861
wi 861
cha 861
amen@@ 861
Panel 861
Exclu@@ 861
exterior 861
Ñ 861
Romul@@ 861
complain 860
ration@@ 860
Associ@@ 860
atro@@ 860
olls 860
Andalu@@ 860
Histor@@ 860
0,@@ 860
sqm 860
Entertainment 860
seventh 859
illustrated 859
hanging 859
aments 859
gru@@ 859
after@@ 859
aforementioned 859
ured 859
unter@@ 859
privately 859
Ã©es 859
ather 859
Gardens 859
laundering 858
ATE 858
photograph 858
interoperability 858
Ben 858
Mun@@ 858
forty 857
Conciliation 857
recovered 857
grass@@ 857
lends 857
fest@@ 857
2.2 857
adventures 857
Pass 857
BE@@ 857
Klaus 857
Aid 856
Hav@@ 856
spirits 856
nut 856
36@@ 856
aman@@ 856
Swi@@ 856
basket 856
cinem@@ 856
inia 856
ree 856
dine 856
aids 855
drastic 855
ecting 855
impacts 855
streams 855
arest 855
ulty 855
shirt 855
declining 855
Ash@@ 855
Rol@@ 855
boutiques 855
Bali 855
Frontex 855
gesture 854
exercising 854
gher 854
cleaned 854
similarly 854
ministerial 854
symboli@@ 854
provinces 854
strings 854
Stri@@ 854
Ã±a 854
tubes 854
clinic 854
Outlook 854
abide 853
optimism 853
grip 853
Radi@@ 853
intact 853
horizon 853
clearing 853
Som@@ 853
TB 853
laboratories 853
mathemati@@ 853
aser 853
Lodge 853
Crus@@ 853
Tau@@ 852
jects 852
diversification 852
judgement 852
warnings 852
consumed 852
alysts 852
1974 852
bet@@ 852
commemor@@ 852
Clar@@ 852
scanner 852
deple@@ 851
remuneration 851
forge 851
prisons 851
urable 851
Monte@@ 851
disarmament 851
Prop@@ 851
photographic 851
Petersburg 851
PS@@ 851
Tor 851
understand@@ 850
inquiries 850
violate 850
devast@@ 850
fixing 850
crossed 850
Americ@@ 850
insulation 850
dice 850
Points 850
BL@@ 850
cz 850
Tyrolean 850
worries 849
haul 849
unci@@ 849
mortality 849
som 849
Verona 849
particles 849
LI@@ 849
kal@@ 849
souven@@ 849
dus 848
Directorate 848
farmer 848
compile 848
Ethiopia 848
maj@@ 848
Stre@@ 848
True 848
Auto 848
cock 848
Edi@@ 848
Partners 848
Bei@@ 848
tu 848
Castell@@ 848
Freedoms 847
conqu@@ 847
observer 847
emble 847
Mei@@ 847
alog@@ 847
ault 847
tera 847
WAR@@ 847
Conservative 846
dismantling 846
profitability 846
125 846
Chernobyl 846
jar@@ 846
energe@@ 846
cens@@ 846
ASEAN 846
xy 846
photographers 846
EGF 846
albums 846
discrepan@@ 845
hypocrisy 845
rush 845
prescri@@ 845
lics 845
tancy 845
terminate 845
scrip@@ 845
captain 845
Georgian 845
acoustic 845
partitions 845
allocate 844
dissemin@@ 844
rests 844
SIS 844
arose 844
Jam@@ 844
rides 844
verti@@ 844
Oxford 844
UPS 844
Ä@@ 844
accomodation 844
menting 843
disclosure 843
grasp 843
peripher@@ 843
open@@ 843
Nich@@ 843
cultivated 843
Vision 843
treasures 843
Superior 843
browsing 843
corro@@ 842
vised 842
harvest 842
help@@ 842
pensioners 842
sail@@ 842
advertisements 842
bottles 842
Ã² 842
1930 842
assisting 841
boosting 841
cture 841
deepening 841
corporation 841
elaborate 841
seriousness 841
tent 841
bad@@ 841
Officer 841
NCC 841
benefiting 840
mono@@ 840
wheel@@ 840
describing 840
ld 840
attack@@ 840
authentic@@ 840
tian 840
cryp@@ 840
fired 840
Lic@@ 840
mortgage 840
Solar 840
Spi@@ 840
Palazzo 840
racist 839
disproportionate 839
revise 839
precondition 839
Making 839
t.@@ 839
Ð¡ 839
disadvantages 838
offence 838
Pir@@ 838
Maj@@ 838
anton 838
folders 838
accesses 838
representations 837
upgrading 837
unsatisfactory 837
displaying 837
Independent 837
traded 837
fres@@ 837
pockets 837
pled 837
DH@@ 837
mos@@ 837
D.@@ 837
uba 837
intolerable 836
pronounced 836
orchest@@ 836
Bremen 836
swing 836
disclose 836
disrup@@ 836
yourselves 836
seemingly 836
crowded 836
striving 836
acious 836
trap 836
telep@@ 836
Text 836
Ã¼ber 836
oph@@ 836
Texas 835
Too 835
forgetting 835
bombs 835
physically 835
Generally 835
bun@@ 835
bubble 835
panic 835
feeds 835
tops 835
Viol@@ 835
unic@@ 835
plasma 835
Visitors 835
.000 835
controversy 834
staff@@ 834
vei@@ 834
intervals 834
wick@@ 834
pole 834
ebo@@ 834
alcoholic 834
exhau@@ 834
Mozart 834
add@@ 834
Lady 834
ovi@@ 834
ovo 834
Born 834
appro@@ 833
Nobody 833
DO 833
Yugoslav 833
Ã@@ 833
cooked 833
loung@@ 833
Camp 833
fabri@@ 833
eri 833
CafÃ© 833
emphasized 833
ignor@@ 832
edo 832
auer 832
physics 832
retailers 832
cast@@ 832
excursion 832
Sant@@ 832
Tech 832
infringements 831
1977 831
rings 831
precau@@ 831
doc@@ 831
Money 831
Neg@@ 831
Certi@@ 831
rad 831
Clean 831
Ð´Ð°@@ 831
jacuzzi 831
urban@@ 830
abstain 830
nominal 830
stabilisation 830
disciplines 830
vaccination 830
Succ@@ 830
IA@@ 830
orchestra 830
Split 830
lag 829
approving 829
Lor@@ 829
amper 829
declined 829
depend@@ 829
passwords 829
worsen@@ 828
Never 828
Watson 828
Valent@@ 828
Perspective 828
ann 828
gin 828
illnesses 828
Patent 828
journeys 828
disorder 828
uta 828
Zu@@ 828
Tob@@ 827
shifting 827
analysed 827
assert 827
entrusted 827
alis@@ 827
ported 827
Tak@@ 827
Florida 827
Paragraph 826
rey 826
ition 826
cited 826
Albert 826
watch@@ 826
Junior 826
activation 826
tale 826
bered 826
canal 826
hero 826
poetry 826
civilization 826
organizational 826
HOTEL 826
wasted 825
utterly 825
Regulations 825
nose 825
cables 825
puri@@ 825
pression 825
shelter 825
Sum@@ 825
aman 825
0.0 825
theories 825
UV 825
observ@@ 824
lane 824
Spec@@ 824
seize 824
take@@ 824
balls 824
Lee 824
DE@@ 824
Republican 824
Ner@@ 824
Ðº 824
rance 823
Jon@@ 823
balances 823
trusted 823
wil@@ 823
anxiety 823
saves 823
tely 823
dless 823
Karel 823
arium 823
oak 823
Deutschland 823
Å@@ 823
FTP 823
mana 823
effec@@ 822
impressions 822
reminder 822
atically 822
pos 822
Occ@@ 822
implied 822
simultaneous 822
baroque 822
printers 822
bij@@ 822
misuse 821
approached 821
prov@@ 821
ila 821
peer 821
SV@@ 821
overlooks 821
dition 821
Sty@@ 821
Rimini 821
repa@@ 820
appointments 820
oted 820
SPA 820
derogation 820
Platform 820
Kri@@ 820
Perfect 820
ACE 820
actress 820
riders 820
UM 820
iel 819
kings 819
bankruptcy 819
etal 819
dic 819
Sti@@ 819
Newsletter 819
testi@@ 818
plying 818
ington 818
emia 818
sponsor@@ 818
mix@@ 818
Facebook 818
username 818
stres@@ 817
rewards 817
Ecofin 817
agers 817
Added 817
flats 817
variant 817
leg 817
Base 817
Erika 816
abor@@ 816
stric@@ 816
may@@ 816
teous 816
buried 816
populist 816
view@@ 816
cleaner 816
passionate 816
ican 816
kni@@ 816
advent@@ 816
Å@@ 816
machining 816
Ð½Ð° 816
infra@@ 815
endeav@@ 815
Brown 815
relocation 815
Living 815
empt 815
Frattini 815
seper@@ 815
umbrella 814
selective 814
restricting 814
Was 814
repeti@@ 814
overwhel@@ 814
accompli@@ 814
rian 814
aler 814
Share 814
Bec@@ 814
motors 814
diagra@@ 814
workflow 814
Princ@@ 814
TU@@ 814
Bluetooth 814
bour@@ 813
inflic@@ 813
coff@@ 813
este@@ 813
uranium 813
Continental 813
mobilisation 813
TEN@@ 813
Hab@@ 813
rail@@ 813
Electronic 813
mont 813
stadium 813
Model 813
Visa 813
Harry 813
Groups 812
lem@@ 812
fishery 812
ICT 812
newer 812
Creative 812
kam@@ 812
ont@@ 812
reassure 811
Personally 811
porting 811
weakening 811
spokes@@ 811
spectac@@ 811
cultiv@@ 811
practise 811
infections 811
squares 811
Tony 811
Ce@@ 811
weg 811
Lum@@ 811
guy 811
och 811
proceeding 810
demon@@ 810
lasts 810
glory 810
forwarded 810
allo 810
Scott 810
iev@@ 810
gens 810
2.1 810
manus@@ 810
painter 810
Oracle 810
camiones 810
inciner@@ 809
cry 809
cosmetics 809
tories 809
nicely 809
drum 809
aki 809
Imperial 809
wird 809
Loc@@ 809
proxy 809
zip 809
pdf 809
Ó©@@ 809
rendering 808
Better 808
extensively 808
kidn@@ 808
nineteenth 808
los@@ 808
elem@@ 808
circu@@ 808
faithful 808
2,000 808
issu@@ 808
microph@@ 808
Boli@@ 808
Om@@ 808
wald 808
Photo@@ 808
sacrific@@ 807
enny 807
bey 807
animated 807
illed 807
petitions 807
Design@@ 807
Link 807
dent@@ 807
robot 807
Equality 806
urely 806
Performance 806
Bangkok 806
Stat@@ 806
terminology 806
bab@@ 806
Laeken 806
hausen 806
Cube 806
fertile 805
proving 805
differs 805
bap@@ 805
slip 805
Stephen 805
tana 805
inu@@ 805
additionally 805
talented 805
Arabic 805
Belar@@ 805
frameworks 804
tax@@ 804
ras@@ 804
cled 804
disputed 804
cryst@@ 804
rape 804
appearances 804
rat 804
graph@@ 804
wash 804
Essen 804
ado@@ 804
Number 804
ingo 804
Yu@@ 804
Visual 804
Color 804
Ð²Ð¾@@ 804
fashi@@ 803
percep@@ 803
valuation 803
travels 803
Economy 803
narro@@ 803
Free@@ 803
og 803
compress@@ 803
Camping 803
ug@@ 802
doctrine 802
DF 802
disregard 802
survived 802
Walter 802
aro 802
moist@@ 802
ark 802
Edit 802
flexi@@ 801
oric 801
dging 801
Gener@@ 801
tabling 801
pir@@ 801
banner 801
child@@ 801
Intel@@ 801
Philippines 801
diagno@@ 801
til 801
Municip@@ 801
dal@@ 801
Fab@@ 801
analog 801
wir 801
stamp 800
Turning 800
nasty 800
hate 800
matt@@ 800
ASA 800
Event 800
exemptions 799
dam 799
dozen 799
220 799
Cs 799
perio@@ 799
exhi@@ 799
Set@@ 799
CP@@ 799
quer@@ 799
lamp 799
hr 799
unbe@@ 799
consecutive 799
Nar@@ 799
avi 799
Ð¼Ðµ@@ 799
Stor@@ 798
repairs 798
provo@@ 798
tactics 798
advertisement 798
odd 798
avia 798
wr@@ 798
ign 798
Virtual 798
Fire@@ 798
brochures 798
Me 798
climatic 797
accelerated 797
occupying 797
bills 797
Belgrade 797
rede@@ 797
lle 797
supermarket 797
summits 797
PA@@ 797
housed 797
NO 797
suspi@@ 796
oppression 796
controllers 796
imbalance 796
readiness 796
accusations 796
Way 796
meth@@ 796
fried 796
Blizzard 796
Presiden@@ 795
tom 795
belts 795
comparative 795
aggregate 795
kas@@ 795
aber 795
ML 795
iz 794
fix@@ 794
illustrates 794
integr@@ 794
keywords 794
Chap@@ 794
ml 794
Made 794
Original 794
mercy 793
PR 793
predominantly 793
publishers 793
fort 793
radar 793
HE@@ 793
municipalities 792
supranational 792
hall@@ 792
ament@@ 792
liberties 792
Norwegian 792
harv@@ 792
sulph@@ 792
trop@@ 792
1500 792
25th 792
Mini 792
Buy 792
inspire 791
allowances 791
abri@@ 791
abundance 791
damp@@ 791
Military 791
Tou@@ 791
ae@@ 791
atar 791
NOR@@ 791
adidas 791
prohibition 790
appeals 790
complying 790
ECHO 790
ulsion 790
assistants 790
risky 790
winding 790
eager 790
beneath 790
Aviation 790
Cannes 790
flowing 790
Dy@@ 790
Pot@@ 790
excitement 790
pelago 790
ographic 790
prompted 789
asion 789
solic@@ 789
destined 789
spiral 789
Kh@@ 789
side@@ 789
7,@@ 789
tet 789
L. 789
vente 789
compounds 788
Uz@@ 788
ulations 788
Mou@@ 788
stepping 788
priv@@ 788
ander@@ 788
myst@@ 788
mysterious 788
ache 788
vendors 788
laimed 788
delights 788
scal@@ 788
dor 788
Vegas 788
bitter 787
fulfilment 787
logging 787
crazy 787
13.@@ 787
Dev@@ 787
presses 787
mistaken 786
No. 786
depri@@ 786
stretches 786
leap 786
WHO 786
Azerbaijan 786
arran@@ 786
predicted 786
Wit@@ 786
Translation 786
Carlos 786
traveller 786
Join 786
Vir@@ 786
Republi@@ 786
Port@@ 786
constructions 786
anten@@ 786
viability 785
logi@@ 785
dense 785
Vall@@ 785
1969 785
bies 785
landmark 785
inspiring 785
storing 785
sequences 785
processors 785
mirrors 785
meadows 785
Sofia 785
Ã¤r@@ 785
CPU 785
attain 784
honoured 784
secrets 784
Numerous 784
appreci@@ 784
Register 784
occupy 784
creditors 784
genes 784
smile 784
EE@@ 784
skiers 784
besar 784
vigilant 783
whis@@ 783
regain 783
underlines 783
repository 783
yearly 783
degra@@ 783
oo 783
ador 783
Grande 783
modernization 783
Ltd. 783
lasted 782
roo@@ 782
popul@@ 782
cils 782
contractors 782
parall@@ 782
orship 782
Tit@@ 782
Books 782
Vin@@ 782
deficiencies 781
redundancies 781
communism 781
opted 781
ener 781
epidemic 781
milli@@ 781
aggression 781
Vladimir 781
mies 781
aba 781
cook 781
fibre 781
directories 781
Swoboda 780
atta@@ 780
extrem@@ 780
toy 780
Sydney 780
subur@@ 780
Johannesburg 780
championship 780
hotel@@ 780
Ethernet 780
Mozilla 780
ose 779
precedence 779
bud@@ 779
neuro@@ 779
Berg@@ 779
Malaga 779
Bran@@ 779
eno 779
thee 779
Guaran@@ 778
tting 778
Total 778
stroke 778
succe@@ 778
ny@@ 778
alig@@ 778
unwind 778
underwater 777
Recomm@@ 777
nes 777
Agricultural 777
poet 777
funny 777
irrit@@ 777
pist@@ 777
Players 777
chemistry 777
aÃ±@@ 777
Dubai 777
Innsbruck 777
php 777
attaches 776
apparatus 776
sponsors 776
reconc@@ 776
1.3 776
unge@@ 776
vic 776
FL@@ 776
cart 775
invisible 775
radic@@ 775
battles 775
Sto@@ 775
protec@@ 775
injustice 775
ende 775
gateway 775
esh 775
brick 775
translator 775
wouldn 775
dead@@ 774
Vac@@ 774
Rwand@@ 774
Final 774
sear@@ 774
capitali@@ 774
Buil@@ 774
Plas@@ 774
refrigerator 774
Maison 774
Ó@@ 774
supplemented 773
gely 773
switched 773
Manchester 773
custo@@ 773
Tax 773
Formula 773
butter 773
divor@@ 773
obsolete 773
docum@@ 773
IE 773
polite 773
sunset 773
prote@@ 773
gs@@ 773
liv@@ 773
accord 772
ball@@ 772
overcoming 772
stepped 772
spin 772
Lama 772
loyal 772
Pom@@ 772
crats 772
attracts 772
amateur 772
Swe@@ 772
Nine 772
Emb@@ 772
olog@@ 772
Jack 772
120@@ 772
Quali@@ 772
Converter 772
disman@@ 771
guardian 771
sures 771
assurances 771
scour@@ 771
wrong@@ 771
preferential 771
chro@@ 771
Former 771
Important 771
outlets 771
sert 771
tem 771
revel@@ 771
zio 771
Virgin 771
glacier 771
Wri@@ 771
infan@@ 770
dissemination 770
PVC 770
Scho@@ 770
Movement 770
borro@@ 770
After@@ 770
Hot 770
izes 770
ridiculous 769
allowance 769
fluid 769
Mayor 769
shocks 769
feit 769
angel@@ 769
Rub@@ 769
omis@@ 768
lowering 768
protagon@@ 768
attacking 768
overlooked 768
ourcing 768
conten@@ 768
ophi@@ 768
ses@@ 768
paramount 768
ART 768
reciproc@@ 768
ograph@@ 768
casinos 768
shade 768
cot 768
kom@@ 768
Hen@@ 768
sculp@@ 768
Theater 768
workable 767
chie@@ 767
restraint 767
elabor@@ 767
juris@@ 767
speedy 767
furnis@@ 767
pregnant 767
accomplish 767
numer@@ 767
distributor 767
Ze@@ 767
Files 767
microwave 767
COM@@ 767
CAN 767
SK@@ 767
Îµ@@ 767
useless 766
revitali@@ 766
enty 766
perpetrators 766
card@@ 766
tices 766
borrowing 766
imperial 766
wed@@ 766
arom@@ 766
ghs 766
Commercial 766
Knowledge 766
org@@ 766
Silver 766
Either 765
laim 765
inspec@@ 765
Events 765
intri@@ 765
stim@@ 765
recipients 765
acking 765
thr@@ 765
Donald 765
Friedrich 765
Manufac@@ 765
rhythm 765
dah 765
elevator 765
merger 764
undergo 764
veterinary 764
mach@@ 764
formulate 764
repressive 764
yen 764
exempt 764
ardo 764
bishop 764
eful 764
battle@@ 764
eins 764
differ@@ 764
stling 764
loop@@ 763
attri@@ 763
beforehand 763
handi@@ 763
Jac@@ 763
etto 763
bollah 763
spel 763
Pay@@ 763
Identi@@ 763
NT 763
best@@ 763
Cot@@ 763
Iron 763
Tenerife 763
Ã³w 763
cafe 763
bankers 762
incorporates 762
aves 762
ptions 762
erable 762
denial 762
bear@@ 762
plen@@ 762
premier 762
Volkswagen 762
DVDs 762
LateRooms 762
proportions 761
Barnier 761
imagin@@ 761
disagreement 761
umin@@ 761
Marie 761
ille 761
aly 761
gastronomy 761
genre 761
terra@@ 761
Trans 760
fortune 760
rulers 760
prescribed 760
replied 760
unrealistic 760
incomprehensible 760
facilitates 760
impunity 760
ase@@ 760
slots 760
wheat 760
Lun@@ 760
Dalmati@@ 760
merged 759
eradication 759
Short 759
MIN@@ 759
Canaria 759
Buch@@ 759
zers 759
ANT@@ 759
sculptures 759
MIDI 759
angan 759
Lanka 758
entrepreneurship 758
junction 758
doubled 758
hostile 758
versa 758
dynamism 758
Unit 758
ISA 758
flavour 758
sortium 758
addic@@ 758
cles 758
lls 758
slides 758
einen 758
adapter 758
sid 758
treas@@ 757
blank 757
tari@@ 757
warehouse 757
ideals 757
graduated 757
dant 757
CN@@ 757
eline 757
Train 757
favor@@ 757
nen 756
scru@@ 756
airspace 756
colli@@ 756
propri@@ 756
totalitarian 756
relies 756
bombing 756
supermarkets 756
administered 756
internation@@ 756
follo@@ 756
diagnostic 756
Sing@@ 756
Baroque 756
zn@@ 756
retaining 755
heart@@ 755
myth@@ 755
spac@@ 755
mayor 755
cod 755
Seventh 755
Mario 755
Marx 755
Visi@@ 755
backwards 754
Construction 754
hierarchy 754
duplication 754
fled 754
Trading 754
yan 754
rad@@ 754
Wes@@ 754
decreased 753
jud@@ 753
arrogan@@ 753
immigrant 753
dictator 753
Crete 753
clin@@ 753
handles 753
OM 753
fantasy 753
cav@@ 753
acquain@@ 753
Origin@@ 753
Rab@@ 753
Hospital 753
rocky 753
Automatic 753
cated 752
incorporation 752
Bolkestein 752
lightweight 752
converter 752
gram@@ 752
crafts@@ 752
generator 752
Mann 752
seg@@ 752
tags 752
tsch@@ 752
Mira@@ 752
FT 752
Shopping 752
campsite 752
cofinancing 751
ghtful 751
sighted 751
utt@@ 751
illusion 751
Chris 751
iri@@ 751
aran 751
soccer 751
browsers 751
SERV@@ 751
Ò¯@@ 751
talents 750
Ambassador 750
sponsor 750
resur@@ 750
condemning 750
payable 750
Mercosur 750
Kl@@ 750
tist 750
them@@ 750
Magazine 750
Human@@ 749
affiliated 749
bizarre 749
manufactures 749
wis 749
growers 749
Az@@ 749
bat 749
Different 749
wag@@ 749
stra 749
addle 749
eng 749
Inc. 749
nin@@ 748
Economics 748
band@@ 748
Dal@@ 748
eternal 748
nai@@ 748
SR 748
easiest 748
Bologna 748
realism 748
conflic@@ 748
dock 748
rolls 748
VII 748
editions 748
Fischer 748
zza 748
entertaining 748
trekking 748
tutorial 748
spontane@@ 747
Gothenburg 747
phra@@ 747
professionally 747
fatal 747
dically 747
142 747
scanning 747
NA 747
cliffs 747
tivirus 747
league 746
timet@@ 746
Care 746
Expl@@ 746
conceivable 746
awak@@ 746
rebuilt 746
meas@@ 746
cater 746
pilots 746
lago@@ 746
exhibits 746
Cont@@ 746
Sign@@ 746
uno 746
Î¹@@ 746
Desktop 746
protectionist 745
derogations 745
rotation 745
ore@@ 745
alties 745
atorial 745
m. 745
governor 745
Turn 745
shirts 745
TP 745
modem 745
travelled 744
Franco 744
conci@@ 744
intoler@@ 744
22@@ 744
RT@@ 744
surprises 744
vas 744
Optim@@ 744
Bene@@ 744
SCH@@ 744
offerings 744
POR@@ 744
stair@@ 743
XX@@ 743
vul@@ 743
courtesy 743
dubious 743
resu@@ 743
Heb@@ 743
signi@@ 743
infring@@ 743
goodwill 743
tta 743
gastronomic 743
Pel@@ 743
flag@@ 743
Smart 743
chat@@ 743
Aut@@ 743
Mini@@ 743
Conver@@ 743
eg 743
carto@@ 743
Secure 743
clay 743
model@@ 743
HI 743
DM@@ 743
tide 742
Workers 742
lessness 742
interpreting 742
distributing 742
MI@@ 742
solvency 742
uss 742
tionist 742
Fifth 742
marketplace 742
exploration 742
gravity 742
Intro@@ 742
Friends 742
horn 742
Airways 742
OL 742
Phil@@ 742
Lis@@ 742
ASE 742
Comfort 742
TER 742
renew 741
lish 741
unresolved 741
catches 741
sorted 741
institution@@ 741
Armen@@ 741
Pension 741
trig@@ 741
searches 741
chil@@ 741
Combin@@ 741
Hil@@ 741
authentication 741
enlar@@ 740
mentary 740
wholesale 740
Refu@@ 740
arguing 740
strust 740
Ideally 740
converting 740
sounding 739
richest 739
tled 739
Certain 739
restra@@ 739
undergoing 739
navig@@ 739
critically 739
reactors 739
collapsed 739
emit@@ 739
enriched 739
transfer@@ 739
tention 739
delines 739
brave 739
racle 739
apar@@ 739
ct 739
cafÃ©s 739
technicians 739
ckey 739
wid@@ 739
Generation 739
Stefan 739
manoeuvre 738
Fore@@ 738
suit@@ 738
racial 738
benchmark 738
mighty 738
etti 738
dows 738
wak@@ 738
Strategi@@ 738
systemic 738
Colom@@ 738
rol 738
Map 738
HÃ´tel 738
Deluxe 738
aug@@ 737
Essen@@ 737
sig@@ 737
pornography 737
tÃ© 737
RÃ©@@ 737
elt 737
2.4 737
poster 737
ces@@ 737
Messenger 737
deliberations 736
Greater 736
guards 736
contexts 736
condu@@ 736
vez 736
march 736
secrecy 736
aps 736
hydrogen 736
1972 736
routing 736
aran@@ 736
Blog 736
tative 735
decommission@@ 735
polls 735
deeds 735
14.@@ 735
fragmentation 735
hony 735
journal 735
lio 735
Shuttle 735
noch 735
pis@@ 735
IRC 735
favou@@ 734
anxious 734
pum@@ 734
assent 734
Montreal 734
sits 734
ide 734
Impro@@ 734
azione 734
touristic 734
1.4 733
acknowledges 733
oods 733
offen@@ 733
08@@ 733
outdated 733
ense 733
onies 733
recognizes 733
bir@@ 733
ketball 733
Inside 733
here@@ 733
Phar@@ 733
Ã¡n@@ 733
Eurocopter 733
witnessing 732
flat@@ 732
constituted 732
earning 732
invent@@ 732
geb@@ 732
pregnancy 732
pub 732
treasure 732
firewall 732
y.@@ 732
Ò 732
viewpoint 731
endeavours 731
repeating 731
maturity 731
infec@@ 731
inos 731
Coordin@@ 731
Dest@@ 731
Prior 731
loses 731
legi@@ 731
nich@@ 731
accom@@ 731
750 731
aster 731
Pass@@ 731
Sli@@ 731
Cardassian 731
summar@@ 730
consultant 730
applause 730
Andalusia 730
subtle 730
outskirts 730
exceeding 730
addiction 730
gest@@ 730
Fitness 730
ettes 730
wall@@ 730
cornerstone 729
Progress 729
interpreters 729
tract 729
volatility 729
ignoring 729
Telec@@ 729
Moroccan 729
maternity 729
fittings 729
proo@@ 729
dul@@ 729
Catalan 729
prayer 729
bonuses 729
ION@@ 729
supplements 728
think@@ 728
exchanged 728
jungle 728
Cadiz 728
proclaimed 728
Gibraltar 728
responsibly 728
emerges 728
slavery 728
categor@@ 728
kits 728
ismo 728
cerem@@ 728
tol@@ 728
Twitter 728
refuses 727
neglect 727
treats 727
recomm@@ 727
eland 727
lanes 727
Traditional 727
Cotonou 727
Physi@@ 727
wski 727
Tool@@ 727
menj@@ 727
bei@@ 726
squee@@ 726
egu@@ 726
sea@@ 726
cosmopolitan 726
interpretations 726
extremists 726
dele@@ 726
versal 726
arance 726
circular 726
Aus@@ 726
Monaco 726
GI 726
Porsche 726
Eng@@ 726
install@@ 726
Seattle 725
dedic@@ 725
floo@@ 725
bed@@ 725
wonders 725
Seri@@ 725
Commons 725
CI@@ 725
absorb 725
otypes 725
estim@@ 725
ITS 725
inas 725
breed 725
Fam@@ 725
friendliness 725
aesthe@@ 725
Ð¸Ñ@@ 725
Sisko 725
Ò±@@ 725
assing 724
thre@@ 724
coexistence 724
apologi@@ 724
contradictions 724
ingers 724
dio@@ 724
vaccines 724
possesses 724
logged 724
org 724
Memory 724
lenses 724
Arc@@ 724
enco@@ 724
einem 724
ashed 723
norm 723
dis 723
avoidable 723
RA 723
imprisonment 723
Ã¡s 723
minerals 723
Peninsula 723
amin 723
ECT 723
STE@@ 723
Conveni@@ 723
farmhouse 723
ambiance 723
Princip@@ 722
frigh@@ 722
transc@@ 722
shoul@@ 722
sab@@ 722
cabinet 722
Wind@@ 722
scored 722
voy@@ 722
MÃ¼ller 722
Form 722
Transfer 722
Poettering 721
half@@ 721
attribute 721
hedge 721
gements 721
chann@@ 721
meanwhile 721
Serbs 721
contacted 721
Bible 721
hob@@ 721
sper@@ 721
Armenia 721
Di 721
anta 721
pink 721
homeland 721
gencies 721
rels 721
anya 721
BI@@ 721
persist 720
questioned 720
kick 720
easing 720
seafood 720
brut@@ 720
Mission 720
lodging 720
tras 720
Fro@@ 720
Links 720
tempor@@ 720
Return 720
sculpture 720
enz 720
Kel@@ 720
efully 719
succession 719
ensu@@ 719
hearings 719
holo@@ 719
vitally 719
impres@@ 719
tedly 719
commun@@ 719
Table 719
Fr@@ 719
chic 719
Miles 719
Metro@@ 719
transp@@ 718
Castro 718
philosophical 718
extremism 718
theft 718
statistic 718
agu@@ 718
mud 718
preval@@ 718
mira@@ 718
clip 718
Dat@@ 718
INC@@ 718
Angel@@ 718
torate 717
relying 717
reproduce 717
applaud 717
intensify 717
moun@@ 717
conform 717
hegemon@@ 717
observing 717
spic@@ 717
eters 717
Ny@@ 717
expl@@ 717
aerospace 717
Payment 717
ionships 717
ius 717
Dark 717
Everest 717
Rose 717
~ 717
fonts 717
catastrophic 716
scandalous 716
censure 716
hus@@ 716
drying 716
mobilise 716
investigating 716
formulation 716
waiver 716
Consider 716
Bangladesh 716
zin@@ 716
AA 716
Argent@@ 716
clips 716
rustic 716
Ø§@@ 716
originated 715
07@@ 715
wildlife 715
enormously 715
provisional 715
nuts 715
coordinator 715
recover@@ 715
ere@@ 715
byp@@ 715
Fort@@ 715
originating 715
Nam@@ 715
LL@@ 715
amidst 715
spect@@ 715
BAE 715
Lucerne 715
Punta 715
Clin@@ 715
WE 715
WITH 715
peng@@ 715
forcement 714
lecture 714
gently 714
medication 714
E. 714
anne 714
Ann@@ 714
tron@@ 714
Crist@@ 714
vegetarian 714
DV@@ 714
eps 714
Quartet 714
ZÃ¼rich 714
Ñ 714
insights 713
pon@@ 713
counterfeiting 713
interact 713
variation 713
Ander@@ 713
sau 713
lled 713
yields 713
orn 713
slower 713
Walking 713
fairer 712
Saf@@ 712
constructing 712
brie@@ 712
Current 712
ities 712
invalid 712
bn 712
Ã¥ 712
rech@@ 712
rented 712
ller 712
Accommodation 712
101 711
competi@@ 711
prolonged 711
dischar@@ 711
carpet 711
bub@@ 711
distill@@ 711
cover@@ 711
glasses 711
Blu@@ 711
scratch 711
obs@@ 711
mg 711
athle@@ 711
Pakist@@ 711
portrait 711
hill@@ 711
Lamanites 711
instrumental 710
hosp@@ 710
identities 710
RE 710
catching 710
Communications 710
oxygen 710
Band 710
IND 710
unauthorized 710
HTTP 710
durch 710
Conservatives 709
Roth 709
cleared 709
Somalia 709
3,000 709
Sharon 709
Colum@@ 709
entes 709
Lab 709
Steinberg 709
entrepreneurial 708
Euratom 708
apologise 708
boast 708
frustration 708
asymm@@ 708
unsustainable 708
drain 708
vin 708
absorption 708
cho 708
registry 708
gt 708
SLR 708
YORK 708
memor@@ 707
Atlan@@ 707
anony@@ 707
streaming 707
suppose 707
unwanted 707
aftermath 707
quer 707
beaten 707
vels 707
oter 707
folding 707
communicating 707
consume 707
wings 707
Cards 707
que@@ 707
Portal 707
Jazz 707
raft 706
freeze 706
expectation 706
proportionality 706
emble@@ 706
okes 706
scattered 706
flooding 706
sag@@ 706
bited 706
defici@@ 706
watched 706
Universi@@ 706
B4 706
bicycles 706
boot@@ 706
Leh@@ 706
Records 706
Arrival 706
quicker 705
quanti@@ 705
essly 705
reviewing 705
CFP 705
MP 705
detained 705
tare 705
stom@@ 705
Usually 705
Zak@@ 705
majestic 705
Ramblas 705
imaging 705
ONE 705
Seller 705
rejects 704
Galicia 704
afford@@ 704
seized 704
dominate 704
testimony 704
offshore 704
destiny 704
1950s 704
atmospheric 704
charity 704
bans 704
1.6 704
PP 704
Gaz@@ 704
pedition 704
Defense 704
ader 704
reach@@ 704
Beau@@ 704
Photoshop 704
PCI 704
dread@@ 703
shifted 703
horror 703
veness 703
juven@@ 703
dup@@ 703
orities 703
guess 703
correspon@@ 703
icing 703
Things 703
quad@@ 703
scholars 703
referendums 703
lich 703
TRA@@ 703
Unix 703
mind@@ 702
god 702
simil@@ 702
dynam@@ 702
rav@@ 702
betra@@ 702
Care@@ 702
slow@@ 702
Opening 702
negli@@ 702
Govern@@ 702
Lig@@ 702
asa 702
Poker@@ 702
alleviate 701
Guatemala 701
ecosystems 701
suffers 701
deploy 701
liberalism 701
Natura 701
Nag@@ 701
patron@@ 701
lab 701
1971 701
beau@@ 701
Spock 701
explored 700
eradicate 700
FP@@ 700
emotion 700
rotating 700
picking 700
muscles 700
disable 700
bien 700
personalised 700
olin 700
hell 699
incidentally 699
struction 699
Put 699
motives 699
dg@@ 699
alien 699
atomic 699
essen 699
etary 699
Equipment 699
PG 699
ii 699
decorative 699
ott 699
WW@@ 699
Ð´Ðµ@@ 699
Messe 699
Alp@@ 699
Ð» 699
strategically 698
missible 698
Equal 698
assuring 698
introduc@@ 698
dow 698
5.00 698
wilderness 698
consci@@ 698
eventual 698
Invest@@ 698
Giovanni 698
Eur@@ 698
appren@@ 698
Trop@@ 698
Ple@@ 698
computing 698
prototype 698
Chianti 698
pixel 698
Settings 698
certainties 697
Establi@@ 697
democrats 697
reciprocity 697
casual 697
uit@@ 697
Always 697
executives 697
Columbia 697
cript 697
favorable 697
desperately 696
rewarded 696
voir 696
complemented 696
will@@ 696
birth@@ 696
dressing 696
pollut@@ 696
Pent@@ 696
apping 696
Stop 696
Motion 696
teles@@ 696
brethren 696
utilization 696
CAN@@ 696
Engine 696
BB@@ 696
Submitted 696
adequ@@ 695
compliant 695
Hilton 695
allegations 695
imminent 695
abundant 695
fei@@ 695
Whereas 695
enquiry 695
inventions 695
polar 695
226@@ 695
grin@@ 695
F. 695
SEO 695
aligned 694
choo@@ 694
retains 694
concentrating 694
Romans 694
ony@@ 694
Mechan@@ 694
dise 694
Integration 694
voucher 694
Aar@@ 694
cogni@@ 694
Kas@@ 694
Terra@@ 694
Gott 694
cite 693
stolen 693
Gas@@ 693
analysing 693
antibiotics 693
UP 693
Nepal 693
ember@@ 693
Stone 693
Feel 693
Bath 693
Stand@@ 692
FF 692
focus@@ 692
safeguarded 692
sses 692
rev@@ 692
tioner 692
atings 692
G. 692
transform@@ 692
sep@@ 692
hyp@@ 692
warp 692
Oliver 692
upheld 691
reluctant 691
Kazakhstan 691
nomination 691
pledge 691
complies 691
sac@@ 691
legislators 691
ury 691
hosti@@ 691
Category 691
versus 691
angered 691
embles 691
occupies 691
aculture 691
tes@@ 691
lighter 691
Burmese 691
allen 691
Provider 691
23rd 691
oma 691
LIN@@ 691
HER@@ 691
Simp@@ 690
argues 690
reform@@ 690
fil 690
lobby@@ 690
distorted 690
vet 690
gnment 690
Rica 690
Ask 690
Complete 690
Pay 690
Particularly 689
coupling 689
oll 689
throu@@ 689
MÃ©@@ 689
oi 689
TW@@ 689
patches 689
annex 688
eler@@ 688
legality 688
Sixth 688
shocked 688
marginal 688
Sv@@ 688
cigarettes 688
Statisti@@ 688
rounded 688
alis 688
wery 688
temptation 687
prerog@@ 687
tuning 687
analytical 687
25.@@ 687
dys@@ 687
IVE 687
afflic@@ 686
Ultimately 686
confusing 686
Ala@@ 686
Dou@@ 686
Something 686
unas 686
cats 686
defensive 686
dividing 686
Leon@@ 686
projected 686
Index 686
ware@@ 686
Television 686
atable 686
Info 686
Treasury 685
cros@@ 685
E.@@ 685
Buddhist 685
acquiring 685
honesty 685
geneous 685
uous 685
fem@@ 685
Christian@@ 685
Test@@ 685
af 685
lar 685
groves 685
swap 685
NT@@ 685
Quarter 685
uphol@@ 684
guil@@ 684
explosive 684
Prec@@ 684
slaugh@@ 684
reproduced 684
Individual 684
celeb@@ 684
muscle 684
K. 684
musician 684
Heidelberg 684
disks 684
herbs 684
adjour@@ 683
105 683
Fru@@ 683
voluntarily 683
ffs 683
confirming 683
refresh@@ 683
dding 683
degradation 683
ographi@@ 683
combustion 683
rout@@ 683
elegantly 683
faÃ§@@ 683
Hi 683
nur 683
Å¼@@ 683
tranquili@@ 683
comprise 682
richer 682
noti@@ 682
registering 682
XI 682
extinc@@ 682
injec@@ 682
Medina 682
fills 682
Bern 682
Ski@@ 682
delle 682
Bonus 682
ÑÐ°@@ 682
mereka 682
utting 681
commented 681
visions 681
aspi@@ 681
rival 681
paradig@@ 681
hiding 681
pulse 681
minimize 681
Luxury 681
meny@@ 681
nels 680
undeni@@ 680
Fas@@ 680
Fourth 680
servant 680
even@@ 680
evacu@@ 680
cloud 680
chise 680
biomass 680
graph 680
Lom@@ 680
lava 680
Hannover 680
uminum 680
o.@@ 680
jacket 679
imple@@ 679
fortunately 679
sanitary 679
interfer@@ 679
tano 679
tricks 679
gem@@ 679
2.3 679
Sakharov 679
tranquillity 679
coordinates 679
tuary 679
digi@@ 679
butions 679
dass 679
Ron@@ 679
Gast@@ 679
aden 678
undermines 678
communal 678
orable 678
identifies 678
correspondence 678
answering 678
responds 678
rogen 678
siveness 678
tuous 678
Tai@@ 678
Fis@@ 678
implants 678
ERS 678
extraordinarily 677
vigorously 677
struggles 677
100,000 677
supportive 677
duplicate 677
masses 677
filtration 677
committing 677
cient 677
restart 677
surpluses 677
PO 677
C6 677
validation 677
ranked 677
Azur 677
polio 677
16.@@ 677
LabVIEW 677
opport@@ 676
consolidating 676
Emp@@ 676
misery 676
boundary 676
illustration 676
B. 676
accumulated 676
brevi@@ 676
excise 676
smuggling 676
Angola 676
Students 676
certi@@ 676
Real@@ 676
Ep@@ 676
diabetes 676
10.00 676
Cruz 676
Soli@@ 676
Domin@@ 676
lumin@@ 676
MPEG 676
Brand 676
standardized 676
YOUR 676
dapat 676
satisfying 675
Tw@@ 675
bying 675
magnitude 675
wning 675
Iber@@ 675
obsc@@ 675
caps 675
surround 675
sad@@ 675
liberation 675
alternate 675
1965 675
plateau 675
Jones 675
salon 675
YouTube 675
gau 675
tik 675
deline 674
evolving 674
candi@@ 674
wai@@ 674
rea 674
subsidi@@ 674
Insurance 674
migrant 674
Zap@@ 674
Remo@@ 674
Wher@@ 674
Years 674
Ein@@ 674
SN@@ 674
Fair@@ 674
Gardena 674
.avi 674
presidents 673
Rac@@ 673
Posselt 673
oneself 673
administrators 673
devised 673
sliding 673
attor@@ 673
naval 673
Consu@@ 673
coated 673
compositions 673
drome 672
misunderstanding 672
zh@@ 672
Pad@@ 672
inhi@@ 672
prestige 672
refriger@@ 672
rhyth@@ 672
paste 672
gir@@ 672
ul 672
flair 672
PXI 672
tersebut 672
greg@@ 671
feasibility 671
voiced 671
Confederal 671
reti@@ 671
entit@@ 671
5000 671
derive 671
bb@@ 671
reserv@@ 671
liabilities 671
glia 671
myth 671
Brit@@ 671
posters 671
Lon@@ 671
Recovery 671
ting@@ 671
Ä@@ 671
fiber 671
SilverFast 671
standardisation 670
attracting 670
lodge 670
embark 670
bureau@@ 670
hem@@ 670
jeopardis@@ 670
amounting 670
Bil@@ 670
8,@@ 670
cruel 670
fighters 670
Veri@@ 670
aller@@ 670
tte 670
Um@@ 670
pi 670
Istri@@ 670
azi@@ 670
visor 670
cion@@ 670
equilibrium 669
command@@ 669
speculative 669
sink 669
rele@@ 669
occurrence 669
lest 669
provincial 669
weigh 669
therhood 669
harm@@ 669
Ã@@ 669
joins 669
curricul@@ 669
vod@@ 669
synthesis 669
dictionary 669
dunes 669
Bud@@ 669
Football 669
Bah@@ 669
veter@@ 669
packs 669
Options 669
Rep@@ 669
Ã¶l@@ 669
ceram@@ 669
TU 669
occasional 668
mergers 668
fluctuations 668
questioning 668
migratory 668
AF 668
harassment 668
itations 668
disper@@ 668
fundamentalism 668
hormon@@ 668
exhibit 668
Dear 668
oro 668
chs 668
mic 668
Ã¶n@@ 668
Sign 668
ranes 668
tima 668
storey 668
TY 668
standardis@@ 667
Sei@@ 667
worship 667
secretariat 667
beverage 667
redress 667
Indonesian 667
wled@@ 667
ozone 667
thy@@ 667
nie 667
KO@@ 667
drought 666
proceeds 666
bres 666
allegedly 666
crafted 666
desi@@ 666
modernity 666
Half 666
offline 666
ouldn 666
header 666
foam 666
admissible 665
compromising 665
downturn 665
shield 665
Standards 665
upgra@@ 665
Gom@@ 665
concerted 665
Soon 665
peacefully 665
cyc@@ 665
Thir@@ 665
Bour@@ 665
scientist 665
psycho@@ 665
Simon 665
tÃ 665
Core 665
Residen@@ 665
Behold 665
electronically 664
reasoning 664
sent@@ 664
4.5 664
Rail 664
reliably 664
amid 664
Rich@@ 664
Master@@ 664
descri@@ 663
Sadly 663
thin@@ 663
mainstreaming 663
region@@ 663
capitals 663
sensu@@ 663
compilation 663
Rober@@ 663
Lud@@ 663
ationary 663
Applications 663
extradition 663
call@@ 663
enclosed 663
Mec@@ 663
Fan@@ 663
vom 663
wered 662
exploiting 662
undergone 662
Consumers 662
ferences 662
industrialised 662
Coming 662
compelling 662
Ach@@ 662
residen@@ 662
Mail@@ 662
haben 662
.NET 662
corrections 661
shocking 661
unused 661
replies 661
crown 661
differentiated 661
histori@@ 661
Cypriot 661
Saharan 661
commer@@ 661
Operation 661
Holding 661
hood 661
freezing 661
locking 661
Founded 661
30th 661
Hat 661
pulled 660
ior 660
shop@@ 660
gauge 660
intake 660
experim@@ 660
hikes 660
yachts 660
witnesses 660
Retur@@ 660
anto 660
switches 660
till@@ 660
gram 660
ssi 660
Daily 660
Lithu@@ 660
melo@@ 660
tsun@@ 660
colored 660
Vulcan 660
frank 659
probability 659
investig@@ 659
vigorous 659
andum 659
enlarge 659
Lyon 659
transforming 659
navigate 659
unwilling 659
She@@ 659
Vie@@ 659
utilities 659
avant 659
Sle@@ 659
moderni@@ 659
Them@@ 659
Quick@@ 659
CMS 659
Bic@@ 659
Swimming 659
reconsider 658
harmonising 658
scri@@ 658
Cau@@ 658
103 658
advantageous 658
preceding 658
entran@@ 658
fascin@@ 658
celebri@@ 658
sans 658
fiers 658
Package 658
mage 658
cylinder 658
Sili@@ 658
vine@@ 658
esto 658
Alm@@ 658
barbecue 658
taxpayer 657
aggrav@@ 657
denying 657
populi@@ 657
onymous 657
democrati@@ 657
Gene@@ 657
editors 657
bacteria 657
Yemen 657
Bit@@ 657
commanded 657
Brand@@ 657
Nuremberg 657
rooftop 657
ption 656
scarcely 656
wondering 656
remainder 656
acon 656
holistic 656
Mongo@@ 656
eder 656
hungry 656
Cardiff 656
cigarette 656
retired 656
pep@@ 656
forwarding 656
Wolf 656
anytime 656
Clau@@ 656
Tours 656
pus@@ 655
stron@@ 655
sevent@@ 655
abused 655
belonged 655
inned 655
uro 655
assault 655
piracy 655
Afri@@ 655
reacted 655
Week 655
glaci@@ 655
sarge 655
transplan@@ 654
corridors 654
shame@@ 654
2050 654
Statement 654
MS@@ 654
tenth 654
orous 654
configurations 654
modal 654
discover@@ 654
broadcast@@ 654
rag@@ 654
Route 654
ui 654
City@@ 654
Ð½Ðµ@@ 654
requi@@ 653
Ec@@ 653
Multi 653
dealings 653
cyn@@ 653
pots 653
republic 653
secretary 653
Ali 653
ahn 653
AV 653
AVI 653
MB@@ 653
Pisa 653
ICA 653
eligibility 652
instructors 652
conversations 652
magi@@ 652
prohibit 652
Sci@@ 652
eme 652
Ferr@@ 652
ito 652
graduates 652
apple 652
Ray 652
C.@@ 652
ook 652
alto 652
TOS 652
blat@@ 651
oration 651
she@@ 651
reson@@ 651
bare 651
Exam@@ 651
satellites 651
aw 651
sives 651
stur@@ 651
bandwidth 651
Qaeda 651
advocating 650
transposed 650
decisively 650
reluct@@ 650
unlawful 650
licit 650
Iz@@ 650
who@@ 650
UEN 650
distra@@ 650
owns 650
entu@@ 650
prÃ©@@ 650
economist 650
Uganda 650
Guard 650
oul@@ 650
Ã¤ 650
zel@@ 650
creations 650
poultry 650
Vati@@ 650
Week@@ 650
cant@@ 650
thouse 650
woody 650
blogs 650
kms 650
kill@@ 649
additions 649
utilisation 649
accumulation 649
import@@ 649
tendencies 649
Dell 649
Mother 649
sheer 649
hetero@@ 649
likelihood 649
imposition 649
locks 649
eper 649
ow 649
gem 649
BER@@ 649
Sep@@ 648
eves 648
token 648
Approval 648
MEDA 648
jen@@ 648
inum 648
e. 648
Palm 648
urging 647
assimil@@ 647
signation 647
unpleasant 647
neoliberal 647
115 647
faction 647
fraudul@@ 647
cons 647
drops 647
ethanol 647
Exp@@ 647
vibration 647
GuantÃ¡namo 647
Eiffel 647
dec 647
Walk 647
remot@@ 646
Councils 646
attachment 646
DÃ©@@ 646
mistak@@ 646
designation 646
shifts 646
curve 646
geograph@@ 646
kets 646
tuberculosis 646
Def@@ 646
ira 646
potato 646
tet@@ 646
Ä@@ 646
Move 646
deluxe 646
Ð´Ð° 646
feared 645
carb@@ 645
slu@@ 645
epi@@ 645
extern@@ 645
civi@@ 645
Ama@@ 645
cau@@ 645
absorbed 645
chens 645
erosion 645
Ds 645
Navy 645
ussy 645
fountain 645
45@@ 645
Surrounded 645
LY 645
colorful 645
Scandinavian 644
volcano 644
15.@@ 644
labelled 644
fai@@ 644
helicopters 644
Dau@@ 644
guer@@ 644
pear@@ 644
1.0 644
Manuel 644
...... 644
GO@@ 644
chest@@ 644
cc 644
amento 644
Ñ@@ 644
preferably 643
compound 643
chn@@ 643
hardt 643
sica 643
A1 643
aine 643
inian 643
tall 643
Func@@ 643
Delivery 643
Metal 643
P. 643
partment 643
RI@@ 643
congratul@@ 642
Prosec@@ 642
elo@@ 642
pol 642
demonstr@@ 642
perfection 642
bias 642
spreads 642
RC 642
gible 642
propag@@ 642
dinners 642
CV@@ 642
conveni@@ 642
Infineon 642
volatile 641
iry 641
leaf@@ 641
nervous 641
Genoa 641
importing 641
Prote@@ 641
domination 641
garten 641
tude 641
Jen@@ 641
Registration 641
Shor@@ 641
Chad 641
fit@@ 641
Isa@@ 640
dau@@ 640
EDF 640
draw@@ 640
beck 640
3.2 640
VA 640
cyclo@@ 640
Sach@@ 640
Included 640
lyrics 640
freshly 640
flavours 640
Ligh@@ 640
Ä@@ 640
malware 640
addi@@ 639
determin@@ 639
tent@@ 639
valu@@ 639
Imagine 639
Les@@ 639
gut 639
Alexand@@ 639
etas 639
kol@@ 639
dispar@@ 638
Azo@@ 638
distinc@@ 638
mills 638
babies 638
cardi@@ 638
H. 638
FT@@ 638
Fern@@ 638
reme@@ 638
endi@@ 638
1966 638
oved 638
yak 638
pover@@ 637
mathematical 637
illary 637
proxim@@ 637
crow@@ 637
secre@@ 637
excited 637
sko 637
bronze 637
rison 637
OS@@ 637
Script 637
Thessaloniki 636
hat@@ 636
vou@@ 636
vendor 636
roller 636
sealed 636
izz@@ 636
mmer 636
tik@@ 636
INE 636
dues 635
voy 635
tending 635
ducing 635
bru@@ 635
produc@@ 635
backgrounds 635
cottage 635
phot@@ 635
boots 635
Jet 635
2.6 634
pon 634
Agreements 634
gery 634
terly 634
stere@@ 634
Moder@@ 634
taxis 634
trailer 634
lik@@ 634
PK@@ 634
event@@ 634
logs 634
vie@@ 634
pod@@ 634
Fres@@ 634
Mist@@ 634
Pum@@ 634
Astrium 634
Milano 634
inging 633
Wall@@ 633
Disney 633
lip 633
excell@@ 633
VO@@ 633
brus@@ 633
town@@ 633
fur 633
Catalunya 633
Orthodo@@ 633
banqu@@ 633
Benz 633
Inci@@ 632
Davi@@ 632
Prac@@ 632
agra@@ 632
Nic@@ 632
viewers 632
gger 632
Ster@@ 632
Mode 632
ommis@@ 631
fort@@ 631
vintage 631
Ric@@ 631
timent 631
Shin@@ 631
Ã©n 631
aco 631
poss@@ 631
loves 631
change@@ 630
gry 630
Arafat 630
disturbed 630
vies 630
Chirac 630
existent 630
Ott@@ 630
Am 630
Schu@@ 630
clicks 630
Tennis 630
THIS 630
ancho@@ 629
1957 629
Rotterdam 629
bum@@ 629
whit@@ 629
Imp@@ 629
Re 629
pairs 629
Dum@@ 629
soap 629
38@@ 629
composite 629
Woo@@ 629
Ð¿ 629
tang@@ 628
commander 628
arbit@@ 628
mist@@ 628
merge 628
Alger@@ 628
lover 628
toilets 628
Erasmus 628
narrative 628
Pun@@ 628
ventilation 628
Ã½@@ 628
Designed 628
chio 628
mais 628
ouses 627
mega 627
Eth@@ 627
stack 627
Orange 627
sports@@ 627
ev 627
statue 627
breakfast@@ 627
HT 627
9,@@ 627
Recon@@ 626
Opportunities 626
monumental 626
Socrates 626
mits 626
doorstep 626
Farm 626
Race 626
asy 626
Ring 626
wo 626
Lufthansa 626
EOS 626
honest@@ 625
metallic 625
promin@@ 625
vity 625
prospective 625
corn 625
Satur@@ 625
Membership 625
Zagreb 625
premiere 625
Ferrari 625
plugins 625
Transpar@@ 624
Stalin 624
reve@@ 624
stitutes 624
dd 624
Lav@@ 624
Whit@@ 624
Integrated 624
aller 624
1944 624
tner 624
touring 624
Hit@@ 624
Ä 624
IMO 623
Gs 623
SME 623
neys 623
billi@@ 623
donated 623
Lieutenant 623
bahn 623
Archer 623
Are@@ 623
facade 623
PayPal 623
Mercure 623
Taj@@ 622
clever 622
cion 622
Prestige 622
Feli@@ 622
aroma 622
Electric 622
Coffee 622
Fant@@ 622
HC 622
abili@@ 621
remark@@ 621
rescu@@ 621
001 621
thos 621
tat 621
Italia 621
styli@@ 621
henko 621
Mr@@ 621
vise 620
ficial 620
wering 620
plum@@ 620
Mare 620
roy@@ 620
sche 620
dilemma 619
Need@@ 619
benefici@@ 619
rites 619
hesi@@ 619
bloc 619
jug@@ 619
erc@@ 619
Andrew 619
20,000 619
32@@ 619
Simple 619
kita 619
queen 619
thers 618
ergonom@@ 618
ANT 618
poli 618
Emplo@@ 617
Contr@@ 617
Liechtenstein 617
ego@@ 616
monster 616
flation 616
Heav@@ 616
riad 616
Posi@@ 616
Cambridge 616
glam@@ 616
Ð½Ð¸@@ 616
rais@@ 615
adly 615
fin 615
Guil@@ 615
Carol@@ 615
Turin 615
petro@@ 615
itar@@ 615
vio 615
50,000 615
CI 615
ima 615
rench 615
titled 615
Yan@@ 615
format@@ 615
Hotel@@ 615
Poverty 614
otage 614
zona 614
rope 614
Kiev 614
ror 614
Lux@@ 614
socket 614
militar@@ 613
client@@ 613
Anne 613
Banks 613
mosa@@ 613
Ken@@ 613
Prus@@ 613
behavi@@ 613
gorgeous 613
Ã@@ 613
inings 613
gulf 612
Leban@@ 612
ghters 612
Ã²@@ 612
pad 612
shar@@ 612
nas@@ 612
prou@@ 612
135 612
ThyssenKrupp 612
01.@@ 612
NH 612
kann 612
itas 611
hydr@@ 611
dents 611
Reception 611
Planet 611
Carl 611
QuarkXPress 611
rega@@ 610
Program@@ 610
small@@ 610
Regar@@ 610
Myanmar 610
DB 610
Vict@@ 610
INI 610
Europ@@ 610
Death 610
Instrument 610
MAN 610
Ð´Ñ 610
quiries 609
alien@@ 609
tite 609
matrix 609
Title 609
presso 609
xide 609
Tol@@ 609
ensemble 609
Marc 609
bee 609
Experts 608
deplo@@ 608
Ev@@ 608
ademi@@ 608
agn@@ 608
1956 608
1920 608
Run 608
efore 608
ALL@@ 608
niture 608
presiden@@ 607
Corbett 607
1900 607
eman 607
Tut@@ 607
tice 607
ARC 607
Coll@@ 607
occ@@ 607
1939 607
Moh@@ 607
OC@@ 607
wy@@ 607
CSS 607
paradox@@ 606
derly 606
Rh@@ 606
edt 606
esp@@ 606
Day@@ 606
raid 606
Catalonia 606
gos 606
singles 606
kov 606
Aero@@ 606
bia 606
meg@@ 606
Details 606
Summary 606
Graz 606
dere 606
Expo 606
Graphi@@ 606
asive 605
gregation 605
pseu@@ 605
fia 605
spr@@ 605
berries 605
esting 605
inver@@ 605
anic 605
Torre 605
Radisson 605
Governor 604
preme 604
Dalai 604
trick 604
stes 604
ICC 604
lib@@ 604
Olympics 604
emy 604
Gh@@ 604
inta@@ 604
BY 604
arks 603
porte@@ 603
Command 603
Release 603
vulner@@ 603
ardi@@ 603
portals 603
Share@@ 603
Rent 603
Ernst 603
esi@@ 603
Realty 603
fortunate 602
Assad 602
spl@@ 602
abulary 602
150@@ 602
240 602
lash@@ 602
3.1 602
turbul@@ 602
pasta 602
mei@@ 602
cil 602
Kaz@@ 602
CancÃºn 602
Dubrovnik 602
skep@@ 602
lear@@ 601
1948 601
traffi@@ 601
ude 601
Conduc@@ 601
0.1 601
Econom@@ 601
philos@@ 601
Johann 601
Carl@@ 601
17.@@ 601
Patrick 601
Moon 601
DEN@@ 601
Ð½Ðµ 601
massi@@ 600
sticks 600
Fox 600
gradu@@ 600
sili@@ 600
Wilhelm 600
mware 600
ERP 600
scrut@@ 599
Hung@@ 599
Tribunal 599
lash 599
fighter 599
Analysis 599
sterili@@ 599
Subscri@@ 599
dena 599
osc@@ 599
pupp@@ 599
Governance 599
Gates 599
ciano 599
antum 598
yiel@@ 598
Cameron 598
Ã±o 598
Markets 598
Arn@@ 598
Europe@@ 597
Urban 597
budge@@ 597
ventures 597
Greg@@ 597
dinal 597
tam@@ 597
Wars 597
Polo 597
M.@@ 597
Ve@@ 597
Email 597
amoun@@ 596
SOL@@ 596
opath@@ 596
Langu@@ 596
bec 596
corrid@@ 596
ssen 596
Fixed 596
Mike 596
teach@@ 596
guesthouse 596
Alpes 595
mation 595
Annan 595
Simil@@ 595
adol@@ 595
garde 595
kilomet@@ 595
rin 595
Kil@@ 595
Nord@@ 595
Archi@@ 595
Conil 595
acion 595
Comfortable 595
Copy 595
critic@@ 594
anche 594
NGO 594
215@@ 594
Famili@@ 594
ee@@ 594
Banking 594
Yo@@ 594
lli@@ 594
pam@@ 594
Â³ 594
Jesolo 594
CNC 594
renew@@ 593
Eurojust 593
tees 593
declar@@ 593
VIII 593
onents 593
Reference 593
LIFE 593
ritual 593
ons@@ 593
ois 593
Motor 593
ave 593
skis 593
Max@@ 593
Solution 593
Champs 593
hierarch@@ 592
Analy@@ 592
Tun@@ 592
arded 592
Fron@@ 592
Pictures 592
Nau@@ 592
Sw@@ 592
Circle 592
reser@@ 591
Francis 591
irrelevant 591
tainment 591
nic 591
assador 591
eel 591
1962 591
dow@@ 591
vre 591
trÃ¨s 591
Ã°@@ 591
Quick 591
CRM 591
108 590
Ankara 590
IONS 590
cleanliness 590
stan 590
bekistan 590
Tanz@@ 590
tail@@ 590
TVs 590
Slo@@ 590
Stadium 590
FIFA 590
jet@@ 590
Linz 590
Work@@ 590
FROM 590
ILL 590
authorit@@ 589
awar@@ 589
akis 589
LomÃ© 589
cide 589
orrow 589
Martini 589
Kash@@ 589
Alzheimer 589
Boston 589
Leave 589
Bristol 589
qu 589
ÑÐ¸@@ 589
heed 588
pause 588
Jarzembowski 588
missi@@ 588
oblig@@ 588
Fast 588
Amazon 588
Champion 588
Shine 588
enne 587
Reding 587
ister 587
Julian 587
Flor@@ 587
Glo@@ 587
kW 587
Ð»Ð¸@@ 587
leges 586
nez 586
gst 586
BBC 586
Salvador 586
Sla@@ 586
eras 586
Vari@@ 586
apa 586
ype 585
Carlo 585
Leone 585
Alan 585
COR@@ 585
lung 585
ru 585
Rav@@ 585
19.@@ 585
aux@@ 585
kha@@ 585
Asi@@ 585
FS@@ 585
Challenge 585
bine 585
node 585
F1 585
hier 585
effic@@ 584
175 584
lips 584
dil@@ 584
German@@ 584
Step 584
Manual 584
Metho@@ 584
1961 584
mt 584
Amon@@ 583
vigor@@ 583
assign@@ 583
Ð³Ð¾ 583
trol@@ 582
ester@@ 582
nific@@ 582
sed@@ 582
Stein@@ 582
1200 582
Twin 582
kun@@ 582
r.@@ 582
Zimmer 582
Style 582
hesit@@ 581
Eri@@ 581
anom@@ 581
develop@@ 581
restruc@@ 581
liers 581
Resources 581
recre@@ 581
teau 581
eck@@ 581
tha 581
H.@@ 581
ould 580
Alicante 580
190 580
Cohn 580
parag@@ 580
Nest@@ 580
Eden 580
Study 580
PI 580
TEC 580
IDE 580
Studios 580
Assistance 579
OTE 579
glo 579
epide@@ 579
Schi@@ 579
ince 579
Administ@@ 579
Com 579
pertoire 579
Steve 579
Tickets 579
Copy@@ 579
uncomfortable 578
attrac@@ 578
gg 578
Autom@@ 578
access@@ 578
Glob@@ 578
tern 578
mina 578
instructor 578
Racing 578
Acrobat 578
Terme 578
fif@@ 577
Brandenburg 577
paradox 577
WallstrÃ¶m 577
condem@@ 577
dispos@@ 577
Terror@@ 577
Oh 577
cracy 577
standardi@@ 577
peror 577
Infra@@ 577
Kath@@ 577
DER 577
yle 577
gano 577
WordPress 577
Photos 577
app 577
Lyn@@ 576
Wide 576
avenue 576
Who@@ 576
sympath@@ 576
gmati@@ 576
Span@@ 576
riv@@ 576
vices 576
entre 576
veau 576
dÃ©cor 576
Evans 575
skir@@ 575
Claude 575
Had 575
Angela 575
kow 575
Document 575
compos@@ 575
BB 575
Ï@@ 575
Platz 575
alquiler 575
Morgan 574
Represent@@ 574
genous 574
athy 574
dot 574
Parties 574
gal 574
Valle 574
nav@@ 574
Scandin@@ 574
Mont 574
Adam@@ 574
dar 574
Napoleon 574
acher 574
Traveller 574
amos 574
gly@@ 574
Peri@@ 573
Eric 573
sender 573
Certificate 573
Picture 573
Ð¼Ð¾@@ 573
1930@@ 572
lux@@ 572
rau@@ 572
Alt@@ 572
WA 572
rite 572
CF 572
Nou@@ 572
wir@@ 572
Module 572
unication 571
magni@@ 571
BI 571
trusion 571
1964 571
650 571
uble 571
Flexi@@ 571
cris@@ 571
Ice 571
ida 571
Stars 571
avian 571
COMP@@ 571
Target 571
sligh@@ 570
rigi@@ 570
rot 570
dali@@ 570
uli 570
Aff@@ 570
bann@@ 570
ATM 570
Ves@@ 570
Factory 570
Ã§Ã£o 570
Electronics 570
Seg@@ 569
tels 569
lick 569
wher@@ 569
trivi@@ 569
erly 569
vision@@ 569
Bendit 569
chim@@ 569
800@@ 569
Phili@@ 569
sol 569
Basilica 569
HA@@ 569
Elba 569
LT@@ 568
herein 568
undo 568
Carmen 568
Franc@@ 568
Rosa 568
Zar@@ 568
Bahrain 568
xis 568
Dominion 568
ELDR 567
accord@@ 567
Leader 567
[...]
